, 226401
. 203602
the 78490
a 74897
to 55768
di 55390
in 55320
che 48029
of 46083
e 43718
and 41178
that 34692
I 34307
" 29975
è 28477
la 28063
is 28050
are 27613
un 27052
it 26316
you 26003
il 25414
's 23061
i 22017
we 20432
per 19960
And 19354
-- 18755
s@@ 18630
le 18357
? 18195
una 17442
: 16582
this 16574
in@@ 16520
E 16287
ed 15815
non 15373
o 15002
on 14943
al 14474
si 14307
s 13513
d@@ 13416
t@@ 13368
c@@ 13300
e@@ 13245
ri@@ 13139
ato 12897
re@@ 12024
i@@ 11933
b@@ 11814
ing 11626
was 11569
l' 11559
an 11532
es 11530
da 11415
st@@ 11273
f@@ 11202
' 10997
come 10978
S@@ 10938
p@@ 10936
r@@ 10925
l@@ 10841
sono 10772
se 10653
for 10646
have 10602
do 10453
so 10381
g@@ 10373
di@@ 10160
one 10095
they 10028
o@@ 9983
a@@ 9903
ar@@ 9742
er@@ 9736
-@@ 9644
del 9460
ate 9439
at 9355
with 9213
an@@ 9191
questo 9165
v@@ 9088
al@@ 9042
m@@ 9019
be 9011
u@@ 8962
on@@ 8951
con 8941
can 8917
or@@ 8890
't 8831
n@@ 8788
ma 8782
what 8746
about 8684
as 8572
all 8534
So 8505
ano 8478
più 8404
ale 8377
y 8353
h@@ 8349
w@@ 8148
D@@ 8130
ci 8016
me 7841
or 7828
it@@ 7812
er 7743
mi 7621
della 7487
en@@ 7458
M@@ 7361
azione 7355
co@@ 7337
li@@ 7329
de@@ 7319
es@@ 7314
at@@ 7313
lo 7309
am@@ 7171
there 7171
not 7108
un@@ 7095
C@@ 6995
t 6936
av@@ 6933
si@@ 6761
con@@ 6685
y@@ 6581
B@@ 6498
ac@@ 6489
It 6487
're 6480
era 6394
ha 6365
A@@ 6313
as@@ 6269
like 6144
ci@@ 6137
pro@@ 6039
ly 6033
from 5962
people 5953
my 5843
per@@ 5803
nel 5801
ic@@ 5725
N@@ 5707
gli 5604
ica 5599
ere 5597
ag@@ 5557
very 5549
ro@@ 5526
♫ 5521
P@@ 5490
T@@ 5482
sp@@ 5469
se@@ 5446
E@@ 5430
ol@@ 5320
know 5306
The 5300
ore 5292
out 5275
ad 5265
just 5233
ti@@ 5213
el@@ 5208
ad@@ 5176
cosa 5171
ata 5154
ap@@ 5143
but 5124
ch@@ 5117
ando 5114
ati 5091
su@@ 5088
our 5057
ation 5021
d 5011
up 4985
im@@ 4947
molto 4933
We 4929
ho 4920
k@@ 4920
But 4897
going 4891
Ma 4883
questa 4862
O@@ 4862
ent@@ 4832
if 4761
these 4749
ta 4730
pi@@ 4722
et@@ 4676
dei 4579
te 4565
ter@@ 4565
mo@@ 4563
chi@@ 4556
ver@@ 4534
th@@ 4530
mi@@ 4518
by 4492
H@@ 4482
vi@@ 4471
vi 4436
them 4421
delle 4407
ec@@ 4381
lo@@ 4380
no 4365
fi@@ 4358
L@@ 4357
here 4354
re 4327
R@@ 4320
for@@ 4316
ono 4308
po@@ 4298
so@@ 4298
ità 4295
think 4295
le@@ 4267
de 4266
get 4260
which 4257
k 4252
io 4250
he 4240
ity 4166
because 4166
alla 4154
anni 4150
abbiamo 4138
ti 4128
essere 4121
gi@@ 4120
tr@@ 4120
F@@ 4111
par@@ 4107
see 4106
ico 4085
ent 4082
ali 4074
cui 4071
ers 4069
go 4055
had 4047
more 4028
inter@@ 4027
us 3995
do@@ 3980
Non 3978
ab@@ 3964
loro 3953
and@@ 3938
str@@ 3926
ai 3920
how 3919
really 3913
fare 3910
when 3903
z@@ 3882
sc@@ 3861
enti 3847
pre@@ 3831
anche 3811
This 3783
ul@@ 3781
persone 3773
ce 3761
us@@ 3759
've 3755
en 3730
would 3710
col@@ 3701
ente 3693
sol@@ 3670
l 3668
perché 3666
bi@@ 3666
You 3655
mo 3654
ine 3650
li 3637
your 3635
In 3627
'm 3625
way 3612
ur@@ 3604
quando 3599
così 3596
world 3590
W@@ 3589
m 3589
who 3589
tutto 3587
time 3583
La 3573
sh@@ 3555
est@@ 3551
res@@ 3537
cre@@ 3504
then 3492
into 3476
te@@ 3464
zione 3464
fin@@ 3454
G@@ 3450
anno 3449
were 3443
mondo 3441
don 3426
dell' 3423
V@@ 3414
where 3401
car@@ 3393
ne 3373
things 3373
att@@ 3370
has 3368
solo 3351
il@@ 3330
ra@@ 3324
hanno 3314
me@@ 3313
amente 3306
ve 3305
their 3291
to@@ 3290
ts 3286
ici 3285
n 3282
uno 3277
min@@ 3277
ar 3277
ice 3258
Il 3252
some 3245
cose 3240
su 3237
qu@@ 3211
sia 3200
... 3194
vol@@ 3179
actually 3162
va 3156
I@@ 3147
tutti 3139
no@@ 3138
modo 3119
bo@@ 3101
quello 3096
imp@@ 3090
able 3081
; 3068
ally 3067
1@@ 3063
years 3063
pres@@ 3050
man@@ 3041
will 3039
sione 3038
ò 3036
endo 3031
un' 3016
now 3016
p 3007
gr@@ 3000
ite 2987
ex@@ 2986
h 2984
K@@ 2969
sta 2962
J@@ 2959
age 2919
fatto 2909
ess@@ 2908
op@@ 2892
c' 2891
ut@@ 2889
want 2868
enza 2859
Quindi 2836
ina 2827
au@@ 2810
other 2805
ciò 2800
ett@@ 2798
be@@ 2775
nella 2761
thing 2755
bu@@ 2750
qui 2745
make 2735
gu@@ 2715
oc@@ 2705
said 2685
is@@ 2676
ds 2662
ante 2661
They 2655
could 2650
dis@@ 2638
ia 2636
been 2635
ma@@ 2626
right 2625
ed@@ 2616
etto 2614
tu@@ 2601
Now 2597
idea 2592
queste 2559
Questo 2553
ne@@ 2553
ero 2546
sa 2537
gen@@ 2537
est 2531
tion 2514
got 2513
questi 2495
cor@@ 2474
anti 2467
ete 2465
parte 2458
TED 2456
ks 2456
pe@@ 2454
ori 2452
almente 2449
something 2448
ot@@ 2441
noi 2437
little 2426
stato 2424
due 2402
cu@@ 2400
mia 2388
cer@@ 2384
acc@@ 2381
mio 2378
all' 2377
siamo 2374
vita 2362
work 2357
prima 2354
st 2350
much 2344
ist@@ 2339
ev@@ 2334
- 2334
A 2324
x@@ 2323
! 2321
em@@ 2313
ous 2310
than 2298
That 2286
chi 2284
comp@@ 2270
say 2264
amo 2262
pri@@ 2255
gh@@ 2245
ir@@ 2243
kind 2243
fa 2242
met@@ 2238
azioni 2228
g 2225
all@@ 2224
two 2222
ora 2219
back 2213
sion 2208
ino 2204
ge 2203
é 2202
ra 2199
j@@ 2198
ob@@ 2195
first 2195
ita 2190
look 2181
zz@@ 2172
ing@@ 2163
der@@ 2152
qualcosa 2149
ogni 2143
mat@@ 2142
id@@ 2138
In@@ 2130
pr@@ 2116
those 2114
over 2092
poi 2088
his 2086
ical 2069
br@@ 2067
pl@@ 2062
ven@@ 2055
life 2051
fac@@ 2041
mon@@ 2039
mor@@ 2029
pot@@ 2023
dire 2022
dove 2009
also 2009
altro 2004
far@@ 2004
aff@@ 2002
lot 2001
What 1994
ali@@ 1991
end@@ 1988
c 1988
ire 1986
am 1974
th 1967
ght 1962
può 1960
tempo 1960
2@@ 1954
dal 1941
rit@@ 1938
only 1938
mar@@ 1926
can@@ 1924
fr@@ 1903
Ch@@ 1894
ento 1885
tra 1882
vo 1880
og@@ 1880
com@@ 1877
sul 1870
'll 1868
she 1860
There 1858
down 1836
most 1833
vedere 1832
ari 1826
ten@@ 1819
ici@@ 1815
ated 1807
ch 1801
pen@@ 1796
did 1796
ris@@ 1795
sor@@ 1793
om@@ 1792
pol@@ 1791
davvero 1787
dic@@ 1785
ons 1784
dov@@ 1779
uc@@ 1778
take 1765
ig@@ 1764
its 1757
mai 1756
around 1756
fer@@ 1753
put 1753
need 1747
’ 1744
ast@@ 1744
many 1743
sulla 1736
uto 1732
os@@ 1731
ents 1731
good 1731
new 1730
U@@ 1728
ancora 1727
zza 1720
3@@ 1718
Se 1717
gente 1714
ito 1709
b 1701
oni 1700
day 1699
po 1697
meno 1696
An@@ 1692
ai@@ 1692
even 1692
Ora 1683
gener@@ 1677
x 1673
go@@ 1673
degli 1668
int@@ 1663
unque 1656
we@@ 1655
lin@@ 1653
aggio 1652
ment 1652
amento 1651
ru@@ 1646
end 1637
hi@@ 1636
zioni 1636
L' 1628
tri@@ 1627
Al@@ 1625
grande 1620
ic 1616
ura 1612
cont@@ 1610
ou@@ 1609
quel 1606
ment@@ 1604
quella 1596
gro@@ 1596
doing 1591
Questa 1585
ese 1584
ence 1584
olo 1580
pa@@ 1579
different 1578
les 1575
à 1570
10 1569
king 1557
Well 1557
being 1552
ava 1550
et 1548
her 1545
cent@@ 1540
voi 1539
eg@@ 1538
alle 1536
etti 1536
eri 1535
He 1535
ay 1534
through 1534
fl@@ 1533
eva 1522
ati@@ 1521
ant 1520
ani 1512
ary 1512
val@@ 1511
ni@@ 1511
mag@@ 1510
use 1507
ric@@ 1505
evol@@ 1505
If 1501
same 1501
mp@@ 1500
any 1493
ting 1492
ro 1490
bile 1490
Talk 1484
gre@@ 1484
iti@@ 1483
ke 1479
tro@@ 1478
ph@@ 1473
Africa 1472
form@@ 1472
lu@@ 1472
sempre 1466
dalla 1465
ren@@ 1465
sur@@ 1465
iti 1460
mostr@@ 1458
w 1453
every 1450
gli@@ 1445
5 1445
Qu@@ 1444
suo 1443
possiamo 1443
el 1441
ations 1438
nostro 1437
mente 1429
È 1421
ating 1421
ser@@ 1420
volta 1419
Subtitles 1416
Transcript 1416
enti@@ 1416
quanto 1413
dopo 1410
anza 1407
ave 1405
our@@ 1405
ca@@ 1394
old 1391
ect 1389
cam@@ 1383
fe@@ 1382
por@@ 1378
bre@@ 1370
tipo 1370
called 1370
tt@@ 1365
ari@@ 1365
made 1363
deci@@ 1358
.@@ 1357
'd 1357
sti@@ 1355
talk 1355
sua 1353
design 1352
19@@ 1350
ca 1344
lavoro 1344
port@@ 1337
three 1336
tre 1333
4@@ 1331
ta@@ 1329
nostra 1327
d' 1326
altri 1322
mas@@ 1322
ant@@ 1321
detto 1320
ho@@ 1317
cap@@ 1316
Sono 1315
bel@@ 1315
gg@@ 1315
punto 1315
7@@ 1312
la@@ 1312
storia 1308
50 1308
ble 1308
pas@@ 1307
fine 1306
evo 1304
Per 1304
ini 1303
mil@@ 1302
erano 1301
rel@@ 1301
quindi 1298
ry 1298
ning 1297
essi@@ 1296
computer 1294
Ho 1293
ort@@ 1293
St@@ 1292
well 1292
ang@@ 1291
Ed 1290
Perché 1290
ther 1288
tel@@ 1287
ov@@ 1285
ze 1278
Si 1277
atti@@ 1274
5@@ 1270
ess 1270
diamo 1269
um@@ 1268
tutte 1267
ole 1266
20 1264
fic@@ 1264
ve@@ 1261
Ci 1259
du@@ 1258
altra 1256
u 1255
year 1255
avere 1249
sci@@ 1248
ario 1246
why 1240
ste 1238
bili 1235
nell' 1232
ago 1231
ute 1228
wor@@ 1225
ene 1224
mento 1223
ted 1220
ance 1219
ever 1215
senza 1214
loc@@ 1207
dere 1207
r 1205
arti@@ 1205
human 1205
ely 1203
man 1202
avo 1200
change 1200
na 1198
sic@@ 1196
tra@@ 1196
body 1196
percent 1193
low 1192
bas@@ 1191
inc@@ 1189
fu@@ 1186
fun@@ 1186
circa 1183
ved 1183
sal@@ 1182
ard 1182
great 1182
proprio 1178
ell@@ 1174
Così 1173
giorno 1172
qualche 1171
ear@@ 1171
cli@@ 1169
stesso 1168
mol@@ 1168
lar@@ 1167
ics 1166
2 1165
avano 1159
big 1159
qual@@ 1158
eff@@ 1156
itu@@ 1155
rec@@ 1155
problema 1154
nei 1153
ana 1151
fact 1151
last 1150
pos@@ 1149
bit 1149
ding 1146
vel@@ 1145
Come 1145
del@@ 1143
als 1141
wh@@ 1140
ff@@ 1138
8@@ 1135
show 1134
iamo 1131
tell 1131
stata 1130
ked 1129
red 1126
went 1126
Abbiamo 1125
pens@@ 1125
ms 1123
ful 1121
didn 1121
rac@@ 1120
migli@@ 1118
the@@ 1118
0@@ 1117
another 1117
let 1116
off 1115
up@@ 1113
des@@ 1111
find 1111
fuori 1108
aria 1105
pic@@ 1105
co 1104
divent@@ 1104
zzo 1103
sort 1101
thought 1100
bene 1099
oggi 1096
used 1096
ities 1094
spi@@ 1092
ative 1091
started 1088
possono 1086
give 1085
place 1081
posto 1079
via 1077
not@@ 1075
Le 1074
atto 1074
sistema 1074
cur@@ 1073
wing 1073
leg@@ 1072
course 1071
4 1070
bisogno 1066
dice 1066
own 1065
Th@@ 1064
esse 1062
cal@@ 1060
No 1059
importante 1058
3 1058
ws 1058
ef@@ 1057
aut@@ 1057
esempio 1053
should 1053
speci@@ 1052
ont@@ 1049
continu@@ 1048
reg@@ 1048
molti 1046
OK 1046
pag@@ 1045
son 1043
um 1041
important 1041
9@@ 1040
nelle 1039
far 1038
Y@@ 1037
ved@@ 1034
ter 1034
chiam@@ 1031
ans 1031
water 1029
spe@@ 1027
today 1026
Ecco 1025
ran@@ 1024
Mar@@ 1023
esso 1020
inizi@@ 1019
6@@ 1019
ings 1018
mis@@ 1015
bambini 1013
pp@@ 1013
altre 1011
f 1010
after 1010
chio 1009
tras@@ 1009
potre@@ 1008
parl@@ 1007
ori@@ 1006
ies 1006
sco@@ 1004
mean 1004
ulti@@ 1003
realtà 1002
7 1001
ep@@ 1001
sho@@ 1000
sel@@ 998
zion@@ 998
6 994
Per@@ 993
atori 992
cr@@ 989
before 989
start 989
nuovo 988
stu@@ 988
Ri@@ 987
fo@@ 987
Quando 986
etti@@ 983
fel@@ 982
technology 982
better 980
ves 979
problem 979
soci@@ 976
does 976
part 973
sta@@ 971
Un 970
story 970
arsi 967
him 967
mb@@ 965
der 965
plan@@ 965
sy@@ 964
bar@@ 962
tur@@ 961
produc@@ 960
came 960
visto 959
Mi 956
acqua 956
ack 956
den@@ 955
ace 954
next 954
never 954
pe 952
peri@@ 952
India 951
ins 951
star@@ 950
ition 950
sar@@ 948
S 948
vero 947
momento 947
cambi@@ 944
tre@@ 941
serv@@ 941
agli 941
volte 940
ling 939
ei@@ 939
segu@@ 938
vo@@ 938
ere@@ 938
whole 938
nostri 936
bb@@ 936
costru@@ 936
app@@ 936
again 934
system 934
dall' 931
ying 931
line 930
mu@@ 928
looking 928
las@@ 927
itt@@ 927
potete 925
negli 924
lic@@ 924
oper@@ 921
andare 921
ell 921
ors 919
viene 917
lavor@@ 916
credo 916
tive 915
verso 914
sti 913
polit@@ 913
he@@ 912
off@@ 911
might 910
zi@@ 909
point 909
onal 909
ture 908
led 908
stiamo 907
cia 907
long 906
tecnologia 905
ge@@ 905
still 905
prov@@ 904
penso 904
ade 900
any@@ 900
voglio 899
Because 899
succ@@ 898
eri@@ 897
done 894
oi 893
zed 893
atore 891
ner 890
essi 890
coll@@ 890
pren@@ 889
dist@@ 888
How 888
Grazie 885
state 884
together 882
few 880
sap@@ 879
mer@@ 879
sk@@ 877
9 877
lui 874
ste@@ 874
love 874
too 874
fu 873
part@@ 872
milioni 872
comes 872
bri@@ 871
entr@@ 870
guard@@ 869
tanto 869
evano 869
New 869
Co@@ 868
ssi@@ 868
ach 868
ben@@ 866
sioni 866
stanno 865
ay@@ 864
arriv@@ 862
uti 862
ast 862
gn@@ 861
30 860
fa@@ 860
pass@@ 859
ola 859
alcuni 858
fosse 857
respon@@ 856
fino 856
af@@ 856
each 856
sei 855
quale 855
dati 849
specie 849
aveva 848
fre@@ 848
million 848
cir@@ 847
ned 847
act 846
materi@@ 844
uzione 844
When 844
200@@ 843
ong 843
less 843
sarebbe 842
100 842
parlare 841
sen@@ 841
tions 840
proc@@ 840
real 840
So@@ 839
between 839
mentre 838
guar@@ 835
doesn 835
eng@@ 834
sub@@ 833
clo@@ 833
cul@@ 832
anti@@ 831
ane 831
found 831
C' 830
e-@@ 828
ase 828
cas@@ 827
00 825
ands 825
question 825
temp@@ 824
oso 824
% 823
wi@@ 823
ki@@ 822
try 822
ose 821
desig@@ 821
possibile 818
brain 818
Una 815
8 815
cel@@ 814
fri@@ 814
alc@@ 812
ue 812
ates 810
present@@ 809
creare 809
colo 808
uti@@ 808
primo 808
wanted 808
azi@@ 807
ass@@ 807
Thank 807
ù 806
oni@@ 805
dio 804
away 804
light 804
senso 803
ational 803
avete 801
ets 801
bor@@ 800
archit@@ 799
casa 797
inf@@ 797
call 795
gs 795
enzi@@ 793
America 791
allo 789
dollari 788
pensare 788
fil@@ 788
molte 787
dev@@ 787
inv@@ 787
già 786
rei 786
ei 786
[ 786
] 786
qualcuno 785
children 785
amb@@ 784
understand 784
cominci@@ 781
data 780
bl@@ 776
,000 776
forse 775
quelle 774
chang@@ 773
dimen@@ 772
ver 772
fol@@ 772
always 771
rete 770
capire 770
cost@@ 770
cos@@ 769
Li@@ 769
person 768
four 768
incredi@@ 766
coming 766
pu@@ 765
farlo 765
insegn@@ 765
viv@@ 764
air 764
control@@ 763
esi 763
enze 763
program@@ 763
cin@@ 762
lì 762
allora 761
stuff 760
video 759
grandi 758
stessa 758
net@@ 757
conosc@@ 757
trans@@ 757
vic@@ 756
conc@@ 756
working 755
ded 755
econo@@ 754
ol 754
tor@@ 752
insieme 751
abor@@ 751
problemi 749
elle 748
tal@@ 748
aggi@@ 747
lav@@ 747
prof@@ 746
sce 746
defin@@ 743
impar@@ 743
land 742
lear@@ 742
tec@@ 741
pes@@ 741
forma 741
sup@@ 741
may 741
cat@@ 740
ill 740
propri@@ 740
asp@@ 739
certo 737
anim@@ 737
believe 737
One 736
anz@@ 736
using 736
fon@@ 735
trying 735
veramente 733
cio 732
diff@@ 732
film 731
1 731
città 731
ette 731
energia 730
Ar@@ 729
live 729
vis@@ 728
sapete 728
dar@@ 727
evamo 726
acci@@ 726
regi@@ 725
sense 725
exp@@ 725
sch@@ 724
wn 723
space 723
fanno 721
prat@@ 721
kids 721
everything 721
miei 720
bac@@ 720
building 720
Lo 719
persona 719
En@@ 719
ure 718
ba@@ 717
arlo 716
stati 716
uta 716
ga 715
ot 714
cho@@ 714
money 714
facendo 713
Here 713
individu@@ 712
stud@@ 712
erò 711
thinking 710
capi@@ 709
bil@@ 709
cervello 709
create 709
sarà 708
od 707
ps 707
tutta 705
endere 705
attraverso 705
har@@ 704
example 703
abbastanza 701
lasci@@ 700
ggi@@ 700
ie 699
successo 699
alizz@@ 699
side 699
natur@@ 698
lan@@ 698
emp@@ 697
avuto 696
organ@@ 696
vari@@ 696
ones 696
caso 695
kno@@ 695
0 694
top 694
took 694
Pro@@ 693
ution 693
sing 693
Oh 692
says 692
ee 690
potrebbe 690
ness 689
inst@@ 689
getting 687
sure 686
lim@@ 686
pi 686
power 686
erà 685
dia 685
mal@@ 685
diver@@ 684
opportun@@ 684
ces 684
char@@ 684
ey 682
meglio 682
disse 681
quite 681
bbero 680
dro@@ 680
form 680
ban@@ 679
energy 679
making 678
trov@@ 677
progetto 677
domanda 677
lead@@ 677
ak@@ 677
exc@@ 677
dobbiamo 676
enough 676
ea 675
esist@@ 675
interesting 675
clas@@ 674
medi@@ 673
ni 672
vers@@ 672
dur@@ 671
tà 671
dollars 671
dai 670
ature 670
These 670
remmo 669
Io 669
dir@@ 668
positi@@ 668
pers@@ 668
ini@@ 668
ty@@ 668
feel 668
innov@@ 667
consu@@ 667
dire@@ 666
sa@@ 666
quali 666
differ@@ 666
senti@@ 664
funzion@@ 664
lei 664
movi@@ 664
ement 664
aw@@ 663
set 663
alcune 662
import@@ 662
Earth 661
amp@@ 660
non@@ 660
spazio 660
colo@@ 659
air@@ 659
country 658
ically 657
necess@@ 656
ak 655
school 655
uro 653
high@@ 653
effetti 652
.000 652
D 652
moti@@ 652
future 652
expl@@ 652
V 651
siano 651
visi@@ 651
gir@@ 650
blo@@ 649
ri 648
ber@@ 647
ena 646
disc@@ 646
media 646
business 646
situ@@ 646
bro@@ 646
My 646
food 646
uni@@ 645
dato 645
B 645
case 645
Che 644
Par@@ 644
quattro 644
happened 644
develop@@ 644
Beh 643
ke@@ 643
ain 643
five 643
agli@@ 642
ty 641
mano 640
ward 640
res 639
second 639
oltre 638
15 637
rem@@ 637
strum@@ 637
rap@@ 637
assi@@ 636
help 636
o-@@ 635
stra 635
id 635
beg@@ 635
dare 634
futuro 634
secondo 634
probably 634
comm@@ 632
Ne@@ 632
anc@@ 632
ey@@ 631
dig@@ 631
nam@@ 631
Su@@ 631
Con@@ 630
contr@@ 628
number 628
segn@@ 627
oun@@ 627
scal@@ 626
cono 626
emente 626
fat@@ 626
war@@ 626
maybe 626
plic@@ 625
cc@@ 625
York 625
etta 624
sue 624
possible 624
icamente 623
play 623
anzi@@ 622
anything 622
book 622
sper@@ 620
avamo 619
idee 619
pan@@ 619
raga@@ 619
und 619
sive 619
piccolo 618
pon@@ 618
studi@@ 618
ems 618
talking 617
Gu@@ 616
nostre 615
dol@@ 614
conv@@ 614
foto 614
Mo@@ 614
Gi@@ 613
small 613
cri@@ 612
grado 612
pun@@ 612
eria 611
semplice 611
adesso 611
mus@@ 611
ick 610
legg@@ 609
post@@ 608
Di@@ 607
consider@@ 607
dy 607
ses 607
stru@@ 606
pover@@ 606
giu@@ 606
pretty 606
Av@@ 605
sotto 605
perf@@ 604
dec@@ 604
planet 604
carb@@ 603
pir@@ 603
means 603
norm@@ 602
left 602
read 602
She 602
care 601
mic 601
uomo 600
science 600
interessante 599
fis@@ 599
tiv@@ 599
vir@@ 599
times 599
menti 598
ft 598
20@@ 597
oro 596
otten@@ 596
compl@@ 596
area 596
ish 596
room 596
signific@@ 595
ambi@@ 595
cresc@@ 595
arono 595
ments 595
move 595
ful@@ 594
ask 593
seen 593
immagin@@ 592
Z@@ 592
ther@@ 592
ecc@@ 591
facciamo 591
lun@@ 590
niente 590
prossi@@ 590
low@@ 590
information 590
build 590
religi@@ 589
Voglio 588
usare 588
amenti 588
arci 588
become 588
quelli 587
tor 587
perc@@ 587
best 587
tto@@ 586
stre@@ 586
ideas 585
40 584
comb@@ 584
wee@@ 584
invest@@ 583
aiut@@ 583
vedete 583
dr@@ 583
ways 583
sto 582
ella 582
wat@@ 582
coun@@ 582
perchè 581
over@@ 581
ult 581
pianeta 579
let@@ 579
invent@@ 579
ls 578
ship 578
lungo 577
gruppo 577
Poi 577
art 577
ory 577
tiamo 576
pul@@ 575
aver@@ 575
industri@@ 575
ath 575
numero 574
super@@ 574
età 574
ust 574
ind 574
half 574
avevo 573
Internet 573
ede 573
fe 573
ismo 572
torn@@ 570
ecco 570
prendere 569
possi@@ 569
fanta@@ 569
fatti 568
fos@@ 567
terra 567
vista 567
chied@@ 566
atura 566
quasi 566
simple 566
picture 566
happen 566
Bi@@ 565
gni 565
invece 565
dge 565
ously 565
ogg@@ 564
ogi@@ 564
mezzo 563
maggior 563
scienti@@ 563
oria 562
tta 562
utt@@ 562
det@@ 562
Uni@@ 562
gia 561
base 561
zio 560
posso 560
Wh@@ 560
stor@@ 559
messo 559
invol@@ 559
esto 559
partic@@ 559
gal@@ 559
else 559
sed 559
abbia 558
vent@@ 558
difficile 557
Why 557
tot@@ 556
ital 556
zzi 555
sero 555
piac@@ 554
os 553
trovare 553
dalle 553
goes 553
essa 552
,@@ 552
fav@@ 551
aro 551
viamo 551
Mi@@ 551
across 551
though 551
arvi 550
nor@@ 550
osserv@@ 550
C 549
osa 548
without 548
parti@@ 547
abile 547
mul@@ 547
jo@@ 547
ving 547
Nel 546
reali@@ 546
phy@@ 546
head 545
arri@@ 544
alità 544
mettere 544
ape 542
che@@ 540
car 540
ton 539
ood 539
makes 538
compr@@ 537
rà 537
gl@@ 537
cle@@ 537
problems 537
having 537
contro 536
ism 536
scor@@ 535
ame 535
test@@ 535
troppo 535
10@@ 535
mark@@ 535
perim@@ 534
riguar@@ 533
sign@@ 532
Cosa 532
O 532
canc@@ 532
every@@ 532
countries 532
squ@@ 531
medic@@ 531
comput@@ 531
bad 530
aggi 529
pure 529
disco@@ 529
Let 529
indi@@ 528
costruire 528
Euro@@ 528
bal@@ 528
mess@@ 528
inform@@ 527
vostro 527
sull' 526
person@@ 526
CA 526
semplicemente 526
enc@@ 526
saw 525
gar@@ 524
works 524
such 524
guy 524
risult@@ 523
luce 523
ach@@ 523
san@@ 522
zation 522
diverse 521
ba 521
struc@@ 521
ability 521
rov@@ 520
fond@@ 520
saying 520
realizz@@ 519
ok 519
gan@@ 519
Ro@@ 519
mach@@ 519
chan@@ 518
ists 518
occup@@ 517
corso 517
60 517
gioc@@ 517
oce@@ 517
ide@@ 517
den 517
ove 516
popol@@ 515
hi 515
All 515
mani@@ 514
libro 514
pend@@ 514
For@@ 513
ner@@ 513
Re@@ 513
mine 513
ero@@ 513
num@@ 513
ut 513
mind 513
spieg@@ 512
deve 512
human@@ 512
basically 512
settiman@@ 511
ate@@ 511
sm@@ 511
days 511
pia 510
Pen@@ 510
mett@@ 510
piuttosto 510
ordin@@ 510
ju@@ 510
God 510
macchina 509
self 509
told 509
home 509
disp@@ 508
abb@@ 508
gno 507
svilupp@@ 507
suoi 507
relati@@ 507
simi@@ 506
emer@@ 506
spec@@ 505
cambiare 505
roc@@ 505
Ma@@ 504
diversi 504
imag@@ 504
metri 503
sul@@ 502
vengono 502
immagine 502
des 502
ogy 502
Bene 501
prend@@ 501
tratta 501
hel@@ 501
hy@@ 501
migliore 500
fur@@ 500
nucle@@ 500
happens 500
ciamo 499
comple@@ 499
thers 499
mini@@ 498
organizz@@ 498
Gli 498
illu@@ 497
giorni 497
vità 497
experience 497
environ@@ 496
Sh@@ 495
duc@@ 495
fron@@ 495
wa@@ 495
living 495
looks 495
gere 494
solut@@ 494
zi 494
hard 494
billion 494
ea@@ 493
Dio 493
social 493
conn@@ 492
strada 492
arr@@ 492
ank 492
zia 491
scel@@ 491
Cre@@ 491
sulle 491
tratt@@ 491
gra@@ 491
scuola 491
om 491
Fran@@ 491
piace 490
etro 490
tech@@ 490
itori 489
emo 489
giro 489
Era 488
lingu@@ 488
significa 487
Ad@@ 487
sui 487
ger@@ 487
astr@@ 487
interess@@ 487
DNA 487
nas@@ 487
face 487
crit@@ 486
ep 486
dav@@ 485
sembr@@ 485
influ@@ 485
natura 485
both 485
giusto 484
umani 484
z 484
ricerca 483
tran@@ 483
universe 483
nello 482
fortun@@ 482
miliardi 482
risp@@ 482
corpo 482
anding 482
inste@@ 482
ché 481
ness@@ 481
oli 481
sembra 481
process 481
asked 481
egn@@ 480
tell@@ 480
micro@@ 479
vediamo 479
ols 479
reason 479
econom@@ 478
mare 478
remo 478
bir@@ 478
moment 478
cinque 477
cibo 477
completamente 477
later 477
preci@@ 476
risol@@ 476
coli 476
dentro 476
project 476
city 476
società 475
inten@@ 475
Allora 475
hand 475
probabilmente 474
viol@@ 474
fondo 474
piccola 473
raggiun@@ 473
ona 473
sing@@ 473
nature 473
turn 473
women 473
history 473
appena 472
aver 472
robot 472
nessuno 472
ativo 471
connec@@ 471
test 470
vostra 469
gover@@ 469
ined 469
while 469
livello 468
rend@@ 468
avevano 467
contin@@ 467
popul@@ 467
rebbero 466
moder@@ 466
comun@@ 466
din@@ 466
direc@@ 466
six 466
epi@@ 464
stic 464
bring 464
places 464
beautiful 464
succede 463
spesso 463
organi@@ 463
long@@ 462
ger 461
nu@@ 461
mercato 461
rad@@ 461
vivere 461
nuova 461
durante 461
ich 461
nothing 461
univers@@ 460
ì 460
possa 460
fam@@ 460
fotogra@@ 460
zo 459
cell@@ 459
ler 459
sli@@ 459
For 459
metter@@ 458
princip@@ 458
As 458
sts 458
music 458
vere 457
conos@@ 457
sent@@ 457
compas@@ 457
piece 457
everybody 457
ited 457
Vi 456
sappiamo 456
sequ@@ 456
simp@@ 456
ator 456
confer@@ 455
donne 455
Vi@@ 455
parole 455
already 455
siete 454
comunità 454
demo@@ 454
biol@@ 454
ven 454
ters 454
lives 454
pensato 453
grazie 453
Quello 453
cogn@@ 453
ately 453
anto 452
animali 452
inizio 452
child 452
accor@@ 451
model@@ 451
elo 451
Bo@@ 451
iche 451
onale 451
high 451
thous@@ 451
eno 450
quei 450
osc@@ 450
tto 450
ester@@ 450
ention 450
men 450
within 450
ragazzi 449
wer 449
incre@@ 449
fic 449
view 449
dello 448
guerra 448
mate 448
rou@@ 448
elettr@@ 447
abilità 447
wal@@ 447
hope 447
almost 447
armi 446
ends 446
true 446
tly 446
rin@@ 445
Un@@ 445
az@@ 445
gono 445
alto 445
keep 445
durre 444
mie 444
esperienza 444
gioco 444
built 444
conto 443
real@@ 443
pur@@ 443
ens 443
species 443
Si@@ 442
colle@@ 442
25 442
tu 442
liber@@ 442
single 442
heard 442
veloc@@ 441
teach@@ 441
Le@@ 440
Uniti 440
riusci@@ 440
hai 440
0s 440
cop@@ 439
uso 439
consi@@ 439
Tut@@ 439
Questi 439
ard@@ 439
Wor@@ 439
ld 439
yet 439
Stati 438
americ@@ 438
batter@@ 438
T 437
Terra 437
under@@ 437
couple 437
jects 437
matter 437
Chris 436
icità 436
giov@@ 436
stessi 436
wr@@ 436
ird 436
ences 436
looked 436
ama 435
risposta 435
Is@@ 435
answer 435
global 434
porta 433
De@@ 433
vill@@ 433
gie 433
pubblico 433
storie 433
sapere 432
ns 432
inci@@ 432
commun@@ 432
inside 432
whether 432
aspett@@ 431
chiamo 431
Qui 431
rappresent@@ 431
scienza 431
tures 431
uman@@ 430
ultimi 430
Mol@@ 430
ista 430
outh 430
este 429
vec@@ 429
ering 429
order 429
poco 428
once 428
patter@@ 428
sions 428
United 428
mostra 427
mother 427
Car@@ 426
genere 425
ond@@ 425
puoi 425
house 425
chiamato 424
ello 424
sì 424
lavorare 424
ativa 424
equi@@ 424
avanti 423
ile 423
80 423
evi@@ 423
ames 423
umano 422
put@@ 422
Ha 422
group 422
aid 422
mer 421
elli 420
male 420
ines 420
mmo 419
nome 419
cl@@ 419
interno 419
qualsiasi 419
ami 419
terri@@ 419
devo 418
vogli@@ 418
indietro 417
ming 417
learn 417
raccont@@ 416
scrit@@ 416
inclu@@ 416
educ@@ 416
ject 416
Then 416
itself 416
nia 415
cellu@@ 415
Pu@@ 415
family 415
SA 414
serve 414
posti 414
paesi 414
compet@@ 414
là 414
comport@@ 414
mili@@ 413
12 413
schi@@ 413
col 413
gets 413
under 413
ebr@@ 412
corr@@ 412
Joh@@ 412
ley 412
Penso 412
modello 412
somebody 412
posizione 411
malatti@@ 411
testa 411
oil 411
tic 411
otti@@ 410
tura 410
bambino 410
ghts 410
ree 410
power@@ 410
iniziato 409
paese 409
maggi@@ 409
000 409
appar@@ 409
stri@@ 409
iting 409
succed@@ 408
rius@@ 408
sola 408
tw@@ 408
vamente 407
qui@@ 407
evi 406
Pri@@ 406
portare 406
cercando 406
atter@@ 405
possibilità 405
funziona 405
pio 405
some@@ 405
must 405
ucci@@ 404
minuti 404
mette 404
incontr@@ 404
wrong 404
photograp@@ 404
asse 403
processo 403
libr@@ 403
dra@@ 403
stories 403
Siamo 402
paio 402
pubblic@@ 402
rapi@@ 402
ery 402
completely 402
ammo 401
struttura 401
men@@ 401
figure 401
flo@@ 401
bly 401
months 401
riv@@ 400
civi@@ 400
visu@@ 400
open 400
kinds 400
occhi 399
accio 399
poter 398
servi@@ 398
progres@@ 398
ron@@ 398
ah 398
dri@@ 398
company 398
els 398
experim@@ 398
underst@@ 398
sugg@@ 397
mapp@@ 397
199@@ 397
capit@@ 396
ragione 396
centro 396
quest' 396
mesi 396
sost@@ 396
pal@@ 396
Gre@@ 396
ail@@ 396
interest@@ 396
ogli@@ 395
scar@@ 395
azz@@ 395
virus 395
seri@@ 395
ground 395
remember 395
effici@@ 394
capacità 394
atu@@ 394
shar@@ 394
community 394
ices 394
war 394
ash@@ 393
ort 393
young 393
isn 393
divi@@ 392
tut@@ 392
concentr@@ 392
shi@@ 392
States 392
loo@@ 392
emat@@ 391
potere 391
ith 391
za 391
appe@@ 391
uses 391
U.@@ 390
veni@@ 390
Au@@ 390
happy 390
famili@@ 389
ament@@ 389
fica 389
meravigli@@ 389
trasform@@ 389
spo@@ 389
action 389
ected 389
chall@@ 389
run 389
amazing 389
imento 388
scoperto 388
forza 388
soldi 388
sens@@ 388
esa 388
descri@@ 388
musica 388
word 388
liter@@ 388
nuove 387
Bu@@ 387
incredibile 387
prote@@ 387
Wi@@ 387
oll@@ 387
od@@ 387
ur 387
ann@@ 386
tti 386
appro@@ 386
giorn@@ 385
intellig@@ 385
elem@@ 385
equ@@ 385
fish 385
public 385
ages 385
until 385
ept 385
rather 385
often 385
vorrei 384
animals 384
pose 383
scale 383
imagine 383
cambiamento 382
differenza 382
condivi@@ 382
sfi@@ 382
urb@@ 382
taking 382
que 381
accad@@ 381
ker 381
game 381
minutes 381
cres@@ 380
Pot@@ 380
aci@@ 380
port 380
tain@@ 380
lots 380
eci 379
stava 379
faccio 379
luogo 379
phone 379
front 379
health 379
11 378
ries@@ 378
cro@@ 378
pazi@@ 378
trad@@ 378
metimes 378
wasn 378
sion@@ 377
intorno 377
biolog@@ 377
afr@@ 377
olog@@ 377
sviluppo 376
emo@@ 376
passato 376
universo 376
market 376
wonderful 376
education 376
secon@@ 375
sf@@ 375
conclu@@ 375
ys 375
large 375
won 375
erebbe 374
usa 374
night 374
stop 374
itare 373
ricon@@ 373
zone 373
dre@@ 373
American 373
model 373
ourselves 373
edi@@ 372
out@@ 372
eas@@ 372
myself 372
impres@@ 371
Sì 371
” 371
preso 371
500 371
sentito 371
distri@@ 371
name 371
immagini 370
mangi@@ 370
separ@@ 370
osp@@ 370
ster 370
ple@@ 370
ext@@ 370
madre 369
sosten@@ 369
centr@@ 369
Ok 369
sh 369
size 369
glio 368
sco 368
ogia 368
creato 368
igh@@ 368
gran@@ 368
structure 368
Mon@@ 367
letter@@ 367
periodo 367
arla 367
causa 367
ow 367
along 367
200 366
donna 366
ros@@ 366
genet@@ 366
wards 366
vely 366
happening 366
tuto 365
som@@ 365
strut@@ 365
ick@@ 365
ricor@@ 365
job 365
progett@@ 364
Queste 364
Google 364
tuo 364
cle 364
questions 364
azionale 363
iscono 363
Ge@@ 363
since 363
feet 363
bur@@ 362
cerc@@ 362
seconda 362
piccoli 362
culture 362
ax@@ 362
ched 362
level 362
hundre@@ 362
taken 362
scopri@@ 361
campo 361
famiglia 361
arte 361
words 361
modi 360
particolare 360
arli 360
orig@@ 360
Al 359
colleg@@ 359
azien@@ 359
Okay 359
die 359
cra@@ 359
ouldn 359
ord@@ 358
produ@@ 358
software 358
Potete 358
parti 358
quell' 358
shed 358
mac@@ 357
esta 357
AI@@ 357
fondament@@ 357
Lu@@ 357
bigg@@ 357
exactly 357
ghi@@ 356
avrebbe 356
essero 356
err@@ 356
L 355
anal@@ 355
sopra 355
team 355
int 355
ently 355
moving 355
Di 354
diverso 354
compag@@ 354
vuole 354
engine@@ 354
guys 354
heart 354
decided 354
intro@@ 353
vogliamo 353
gio@@ 353
ll@@ 353
Yeah 353
ece 352
scriv@@ 352
nem@@ 352
globale 351
nulla 351
chiesto 351
pian@@ 351
chiama 351
H 351
amoun@@ 351
acqu@@ 350
aggiun@@ 350
stare 350
diventare 350
alb@@ 350
trovato 350
ush 350
Be@@ 350
tic@@ 350
pati@@ 350
knew 350
couldn 350
ocean 350
dico 349
quant@@ 349
divers@@ 349
tipi 349
stat@@ 349
0,000 349
hol@@ 349
whatever 349
ado@@ 348
ricord@@ 348
Pi@@ 348
sum@@ 348
lions 348
atamente 347
prog@@ 347
atmo@@ 347
origin@@ 347
d-@@ 347
turns 347
haps 347
ambiente 346
ani@@ 346
condi@@ 346
vicino 346
dent@@ 346
huge 346
someone 346
guardare 345
18 345
Ste@@ 345
ules 345
meas@@ 345
sacco 344
buona 344
enorme 344
adre 344
informazioni 344
fas@@ 344
ching 344
syst@@ 344
serie 343
pa 343
sopr@@ 343
Com@@ 343
stico 343
sole 343
f-@@ 343
hear 343
fia 342
particular 342
dovuto 341
produce 341
lev@@ 341
atten@@ 341
G 341
vu@@ 341
enom@@ 341
ga@@ 341
language 341
government 341
add@@ 340
recor@@ 340
entu@@ 340
evole 340
ghi 340
deva 340
enor@@ 340
memor@@ 340
electr@@ 340
society 340
sano 339
domande 339
ples 339
vered 339
contri@@ 338
nel@@ 338
sbagli@@ 338
commerci@@ 338
ovviamente 338
reale 338
Pe@@ 338
stry 338
read@@ 338
gest@@ 337
pat@@ 337
comunic@@ 337
rispon@@ 337
petrolio 337
Nor@@ 337
Possiamo 337
dience 337
questione 336
Ciò 336
prepar@@ 336
utilizz@@ 336
HI@@ 336
list@@ 336
fiel@@ 336
cost 336
hours 336
least 336
esattamente 335
Ho@@ 335
cos' 334
arrivare 334
missi@@ 334
prefer@@ 334
woman 334
surface 334
free 334
became 334
created 334
lato 333
aia 333
Cer@@ 333
sini@@ 333
sec@@ 333
row 333
vano 332
run@@ 332
auto 331
dono 331
cammin@@ 331
sw@@ 331
gone 331
century 331
seven 331
disease 331
kil@@ 330
ye@@ 330
wed 330
cells 330
worked 330
need@@ 330
auto@@ 329
dito 329
compar@@ 329
rebbe 329
mani 329
ners 329
cominciato 329
indo@@ 329
tou@@ 329
grad@@ 329
tors 329
news 329
head@@ 329
beginning 329
biamo 328
Po@@ 328
osi 328
Tutti 328
natural 328
bility 328
takes 328
Ti@@ 327
migliaia 327
isti 327
umana 327
tua 327
son@@ 327
ater 327
beli@@ 327
aying 327
difference 327
ential 327
outside 327
Tw@@ 326
nuovi 326
kin@@ 326
tempor@@ 326
evid@@ 325
piano 325
princi@@ 325
eting 325
creati@@ 325
atur@@ 325
boo@@ 325
itting 325
behavi@@ 325
faccia 324
Sapete 323
oè 323
ascolt@@ 323
suff@@ 323
integr@@ 323
key 323
dom 323
Afric@@ 323
quick@@ 323
ricev@@ 322
sin@@ 322
oh 322
site 322
control 322
“ 321
portato 321
studenti 321
atti 321
uomini 321
mini 321
Secon@@ 321
priv@@ 321
saranno 321
rai@@ 321
vive 321
complic@@ 321
ebbe 321
ong@@ 321
alk 321
ky 321
thre@@ 321
economia 320
secolo 320
anze 320
M 320
studio 320
fal@@ 320
mmet@@ 320
open@@ 320
entire 320
research 320
tas@@ 319
nut@@ 319
discus@@ 319
sicur@@ 319
parla 319
cond@@ 319
amma 319
grap@@ 319
Af@@ 318
superficie 318
trav@@ 318
vor@@ 318
quad@@ 318
gas 318
needs 318
play@@ 318
piu 317
macch@@ 317
cercare 317
David 317
zero 317
Da 317
amore 317
fico 317
deter@@ 317
soff@@ 317
late 317
ered 317
known 317
certain 317
agi@@ 316
stati@@ 316
zing 316
ects 316
driv@@ 316
themselves 316
shows 316
scienzi@@ 315
muov@@ 315
abbi@@ 315
ford 315
piedi 315
ney 315
lue 315
past 315
desider@@ 314
cus 314
P 314
neur@@ 314
ide 314
posed 314
dovrebbe 313
avi 313
siste@@ 313
resto 313
bo 313
nolo@@ 313
anci@@ 313
S. 313
straordin@@ 312
tag@@ 312
quar@@ 312
midd@@ 312
rivol@@ 311
forme 311
dicono 311
net 311
based 311
against 311
glia 310
biso@@ 310
posi@@ 310
Go@@ 310
turned 310
seeing 310
motivo 309
lont@@ 309
pensi@@ 309
itive 309
salv@@ 309
prodotto 309
plor@@ 309
parola 309
edificio 309
reas@@ 309
tecnolo@@ 307
iness 304
ous@@ 303
picco@@ 302
don@@ 302
see@@ 301
ada 299
intelli@@ 297
TE@@ 297
prodo@@ 291
pet@@ 291
ular 291
ir 290
elec@@ 289
X@@ 287
my@@ 287
ragi@@ 285
/ 285
progr@@ 284
govern@@ 283
sic 282
tain 282
occu@@ 280
dise@@ 280
chè 279
abil@@ 279
indu@@ 277
ople 277
perto 276
Americ@@ 276
Gr@@ 275
heal@@ 274
vostr@@ 273
asi 272
kes 271
stes@@ 268
dd@@ 266
scu@@ 265
bra@@ 265
vide@@ 264
ff 263
tit@@ 263
wan@@ 263
rol@@ 262
orno 261
capac@@ 261
ause 260
year@@ 260
ricer@@ 259
op 259
wer@@ 258
grup@@ 257
– 254
ber 254
Jo@@ 253
esemp@@ 253
Inter@@ 250
matt@@ 249
R 249
attr@@ 248
robo@@ 248
eta 247
ans@@ 246
cour@@ 246
bus@@ 245
very@@ 239
happ@@ 237
eve 236
nol@@ 235
vie@@ 234
hop@@ 232
xt 232
fort@@ 231
ener@@ 231
colare 229
uro@@ 229
bilità 229
hav@@ 229
buil@@ 229
stre 228
ll 228
Ci@@ 227
F 227
W 225
usto 225
fore 225
posta 224
scri@@ 224
pt 224
mbr@@ 223
colt@@ 223
ably 222
glob@@ 219
arch@@ 219
q 217
ths 215
K 213
scho@@ 210
ouse 208
lit@@ 207
hear@@ 207
fir@@ 206
hun@@ 206
devel@@ 206
X 202
pubbl@@ 200
attraver@@ 200
lob@@ 198
ety 196
mes 196
gh 194
luog@@ 193
hu@@ 190
Pos@@ 188
probabil@@ 188
complet@@ 187
ine@@ 187
ould 187
ays 187
call@@ 185
insi@@ 183
semb@@ 182
ardi 181
Sap@@ 179
imes 178
sempl@@ 177
famigli@@ 174
figu@@ 173
v 172
piamo 171
plac@@ 170
ready 167
ken 167
fro@@ 166
actu@@ 166
experi@@ 165
citt@@ 164
atta 162
of@@ 162
uo@@ 161
bli@@ 161
auti@@ 161
$ 157
stem 157
publi@@ 157
energ@@ 153
thin@@ 153
spazi@@ 152
contro@@ 151
lizz@@ 148
N 148
ough 146
icro@@ 145
nov@@ 143
bamb@@ 143
gi 141
muc@@ 140
odo 140
chil@@ 140
memb@@ 135
wonder@@ 135
fan@@ 133
sb@@ 132
immag@@ 130
etting 129
merc@@ 128
throu@@ 128
questi@@ 127
'@@ 126
ury 126
Dav@@ 123
acco 123
.. 122
won@@ 121
etter 120
cuno 120
stra@@ 118
doman@@ 117
eme 117
elet@@ 117
lion 116
hal@@ 116
hist@@ 115
pena 114
oul@@ 113
erra 111
cco 110
viamente 109
Q@@ 109
hum@@ 109
prob@@ 108
ours 108
ten 108
semplic@@ 107
reli@@ 106
kay 105
sop@@ 104
thou@@ 103
member 102
hap@@ 101
esperi@@ 100
Cos@@ 99
oglio 98
cora 98
diffici@@ 97
U 96
fut@@ 95
& 94
nat@@ 94
aga@@ 93
dollar@@ 91
altr@@ 90
commer@@ 88
was@@ 88
utes 86
nec@@ 85
langu@@ 85
J 83
sof@@ 82
resear@@ 82
ross 81
youn@@ 75
igli@@ 74
pie@@ 72
superf@@ 72
technol@@ 72
° 71
Tran@@ 69
Quest@@ 68
igh 68
quel@@ 67
elli@@ 67
proble@@ 66
ound 66
ficio 66
sult@@ 64
Y 64
inning 64
All@@ 62
q@@ 62
amer@@ 61
ulla 59
petrol@@ 59
ú 58
é@@ 56
pubb@@ 55
nuc@@ 55
Ear@@ 55
quest@@ 54
svilu@@ 53
ample 52
Yor@@ 51
— 50
semp@@ 49
gior@@ 49
@ 47
tries 47
ou 46
Z 46
á 46
Q 46
… 45
NA 45
bec@@ 44
signi@@ 44
bet@@ 44
ether 44
may@@ 43
« 42
» 42
vello 42
what@@ 42
nuov@@ 40
+ 40
ittle 39
univer@@ 38
dren 37
) 36
É 35
amaz@@ 35
desi@@ 34
beauti@@ 34
with@@ 34
attro 32
svi@@ 32
ó 31
indi 29
viron@@ 29
´ 27
bbe 27
í 27
tty 27
ppo 25
è@@ 25
til 25
strutt@@ 24
superfici@@ 24
Sub@@ 24
titles 24
ö@@ 23
siasi 22
script 22
uttosto 22
à@@ 20
fotog@@ 20
# 20
* 19
otograp@@ 18
setti@@ 17
attamente 17
Goog@@ 17
j 17
Amer@@ 16
econ@@ 16
ween 16
behav@@ 16
tog@@ 15
ris 14
= 14
( 14
ì@@ 14
esn 14
actly 14
coup@@ 13
astanza 12
avigli@@ 12
tegr@@ 12
portun@@ 12
á@@ 12
utto@@ 11
ò@@ 10
ü@@ 10
them@@ 9
otog@@ 8
ñ@@ 8
eah 8
selves 8
ó@@ 7
azie 7
tware 6
í@@ 6
ä@@ 6
‘ 5
alcun@@ 5
² 5
ã@@ 5
wom@@ 5
inst 5
ç@@ 4
indivi@@ 4
^ 4
¼ 3
ù@@ 3
` 3
ú@@ 3
â@@ 3
É@@ 3
ā@@ 3
ï@@ 3
♪ 3
½ 2
€ 2
û 2
ê@@ 2
ć 2
˚ 2
£ 2
bbiamo 2
Ç@@ 2
happen@@ 2
`@@ 1
™ 1
İ@@ 1
nostr@@ 1
® 1
ž@@ 1
ѐ 1
¥ 1
© 1
ś@@ 1
º@@ 1
√ 1
± 1
