, 226401
. 203915
a 84268
the 78490
to 58052
di 56453
in 55770
che 48480
e 48225
of 46083
and 41653
that 34692
I 34307
are 32412
" 29975
s@@ 29662
la 29632
i 28997
è 28800
is 28500
un 27441
it 26316
you 26003
il 25825
in@@ 23753
's 23061
o 22300
d@@ 22047
le 21578
s 21376
e@@ 21098
t@@ 20441
we 20432
i@@ 20256
per 19960
And 19354
ed 19174
o@@ 18903
c@@ 18755
-- 18755
? 18195
r@@ 17787
ri@@ 17465
m@@ 17462
una 17442
g@@ 17070
ar@@ 16809
on 16786
ing 16739
b@@ 16735
ato 16721
es 16710
al 16612
: 16582
this 16574
l@@ 16542
f@@ 16472
re@@ 16314
E 16287
p@@ 16276
er@@ 15620
si 15575
non 15373
h@@ 15251
a@@ 14983
st@@ 14892
S@@ 14543
al@@ 14255
n@@ 13961
u@@ 13117
at@@ 13076
so 13039
on@@ 13034
se 13002
y 12971
di@@ 12876
or@@ 12669
an 12589
en@@ 12460
l' 12443
v@@ 12360
one 12256
er 12068
an@@ 11916
da 11777
' 11727
was 11569
do 11434
w@@ 11312
av@@ 11247
li@@ 11204
come 10978
con@@ 10915
sono 10772
am@@ 10759
as@@ 10659
D@@ 10654
for 10646
have 10602
it@@ 10451
co@@ 10433
-@@ 10334
t 10250
ate 10204
si@@ 10111
de@@ 10062
they 10028
ano 9896
ale 9869
del 9833
C@@ 9677
ac@@ 9584
pi@@ 9543
es@@ 9511
me 9424
at 9355
or 9306
un@@ 9275
M@@ 9213
with 9213
questo 9165
ma 9101
su@@ 9062
be 9011
ci@@ 8985
con 8941
can 8917
as 8890
't 8831
el@@ 8812
ere 8801
what 8746
about 8684
A@@ 8682
lo 8651
y@@ 8535
all 8534
So 8505
mi 8497
vi@@ 8462
P@@ 8427
più 8404
B@@ 8402
ol@@ 8297
mo@@ 8199
ap@@ 8164
d 8131
ci 8016
ic@@ 8003
ly 7769
se@@ 7741
ad@@ 7712
k@@ 7618
tr@@ 7524
della 7487
ti@@ 7369
le@@ 7363
azione 7355
sp@@ 7315
po@@ 7304
pro@@ 7288
ch@@ 7271
ro@@ 7262
gi@@ 7249
there 7171
ag@@ 7137
N@@ 7122
not 7108
ità 7067
en 7057
ec@@ 7031
qu@@ 6901
et@@ 6881
ter@@ 6830
sc@@ 6801
ur@@ 6706
par@@ 6663
T@@ 6572
It 6487
're 6480
str@@ 6463
E@@ 6446
fi@@ 6441
era 6394
per@@ 6377
ha 6365
z@@ 6363
ad 6340
chi@@ 6317
h 6263
so@@ 6222
like 6144
mi@@ 6114
ore 6109
ti 6089
re 6021
mo 6013
comp@@ 5993
ica 5987
ent@@ 5984
from 5962
people 5953
ation 5919
min@@ 5917
im@@ 5891
ity 5885
io 5857
my 5843
out 5823
nel 5801
sol@@ 5779
li 5753
ta 5725
l 5687
L@@ 5683
gli 5604
O@@ 5590
H@@ 5575
F@@ 5574
very 5549
gu@@ 5529
ati 5529
ico 5527
♫ 5521
ando 5520
ut@@ 5499
n 5460
ce 5416
up 5407
R@@ 5352
th@@ 5350
amente 5336
ra@@ 5333
for@@ 5330
te 5330
te@@ 5327
know 5306
The 5300
just 5233
G@@ 5217
cosa 5171
lo@@ 5161
ata 5154
est@@ 5124
but 5124
me@@ 5092
ul@@ 5083
lu@@ 5070
our 5057
col@@ 5048
vi 4986
do@@ 4980
pre@@ 4977
ono 4950
molto 4933
We 4929
ho 4920
de 4919
ers 4897
But 4897
going 4891
Ma 4883
ver@@ 4873
questa 4862
ve 4861
us@@ 4819
no 4784
man@@ 4765
if 4761
these 4749
1@@ 4734
res@@ 4708
cor@@ 4676
go 4632
sa 4629
k 4621
dei 4579
att@@ 4554
ar 4554
il@@ 4553
is@@ 4540
ine 4535
cre@@ 4531
ali 4526
bi@@ 4501
by 4492
m 4448
inter@@ 4446
gr@@ 4436
them 4421
and@@ 4420
W@@ 4415
delle 4407
us 4390
to@@ 4389
ai 4360
here 4354
ero 4348
V@@ 4325
sh@@ 4307
met@@ 4301
think 4295
I@@ 4275
get 4260
which 4257
he 4240
ds 4235
amo 4173
enti 4168
because 4166
alla 4154
og@@ 4151
anni 4150
abbiamo 4138
essere 4121
enza 4116
ex@@ 4111
see 4106
ra 4090
tu@@ 4088
ent 4082
ts 4076
cui 4071
vol@@ 4049
had 4047
ente 4039
more 4028
no@@ 4018
Non 3978
ab@@ 3964
loro 3953
va 3920
how 3919
ati@@ 3914
really 3913
bo@@ 3911
fare 3910
when 3903
zione 3875
ne@@ 3863
ne 3828
anche 3811
A 3796
ess@@ 3792
This 3783
persone 3773
anno 3770
've 3755
uno 3749
gh@@ 3719
would 3710
c 3697
ma@@ 3683
perché 3666
You 3655
your 3635
In 3627
'm 3625
ist@@ 3614
be@@ 3614
ia 3613
op@@ 3612
way 3612
ete 3600
quando 3599
così 3596
em@@ 3595
ett@@ 3593
ed@@ 3590
world 3590
who 3589
tutto 3587
time 3583
La 3573
zz@@ 3549
oc@@ 3545
pr@@ 3529
sta 3529
then 3492
ge 3489
into 3476
ks 3475
ura 3474
imp@@ 3461
fin@@ 3454
der@@ 3443
were 3443
mondo 3441
don 3426
dell' 3423
pres@@ 3421
ev@@ 3402
where 3401
car@@ 3393
things 3373
ò 3372
has 3368
solo 3351
ta@@ 3350
ina 3336
gen@@ 3328
hanno 3314
ite 3309
their 3291
ici 3285
os@@ 3263
th 3261
age 3260
ice 3258
et 3255
Il 3252
some 3245
cose 3240
su 3237
acc@@ 3229
thing 3216
sia 3200
... 3194
dis@@ 3167
actually 3162
j@@ 3145
au@@ 3141
tutti 3139
ante 3122
modo 3119
po 3117
quello 3096
bu@@ 3094
able 3081
vo 3078
enti@@ 3076
; 3068
ally 3067
years 3063
will 3039
sione 3038
endo 3031
pl@@ 3028
un' 3016
now 3016
p 3007
st 3002
est 3001
ser@@ 2970
K@@ 2969
ino 2960
J@@ 2959
end@@ 2957
om@@ 2954
ven@@ 2947
br@@ 2943
ori 2941
pri@@ 2937
ons 2924
ric@@ 2913
fatto 2909
tion 2903
c' 2891
anti 2890
want 2868
ot@@ 2851
ro 2851
pe@@ 2845
rit@@ 2840
ou@@ 2840
tro@@ 2839
Quindi 2836
wor@@ 2828
pot@@ 2812
other 2805
pa@@ 2804
ph@@ 2802
ciò 2800
2@@ 2762
nella 2761
w 2760
qui 2745
ence 2745
fac@@ 2744
uc@@ 2737
make 2735
cu@@ 2714
siamo 2711
mia 2708
cer@@ 2701
ora 2694
x@@ 2685
said 2685
chi 2683
U@@ 2680
ir@@ 2679
Al@@ 2677
They 2655
could 2650
ch 2645
been 2635
dic@@ 2627
right 2625
pen@@ 2619
g 2618
etto 2614
all@@ 2613
Now 2597
idea 2592
azioni 2572
queste 2559
sci@@ 2557
Questo 2553
ici@@ 2551
fer@@ 2542
ali@@ 2537
à 2521
int@@ 2515
ire 2514
got 2513
questi 2495
pos@@ 2483
ment 2471
parte 2458
TED 2456
can@@ 2456
almente 2449
something 2448
ni@@ 2447
esso 2445
0@@ 2441
mon@@ 2440
noi 2437
dov@@ 2433
wh@@ 2432
little 2426
stato 2424
bile 2424
ole 2415
gro@@ 2413
diver@@ 2412
due 2402
oi 2402
mio 2378
all' 2377
ked 2376
ov@@ 2374
mor@@ 2369
cont@@ 2364
vita 2362
work 2357
prima 2354
el 2349
much 2344
ght 2336
- 2334
Ch@@ 2330
am 2329
Qu@@ 2328
! 2321
ous 2310
pol@@ 2306
com@@ 2303
than 2298
That 2286
soci@@ 2284
ig@@ 2283
fr@@ 2280
most 2280
ento 2273
cent@@ 2267
say 2264
pu@@ 2261
kind 2243
fa 2242
ris@@ 2230
go@@ 2226
our@@ 2222
two 2222
back 2213
sion 2208
ture 2204
é 2202
ob@@ 2195
first 2195
por@@ 2191
ita 2190
look 2181
ing@@ 2163
qualcosa 2149
ogni 2143
mat@@ 2142
lin@@ 2141
ated 2141
x 2139
id@@ 2138
In@@ 2130
he@@ 2129
St@@ 2122
those 2114
co 2102
ther 2100
over 2092
tur@@ 2091
alle 2089
poi 2088
his 2086
new 2080
cam@@ 2075
uto 2073
gg@@ 2069
ical 2069
b 2066
body 2065
port@@ 2064
ely 2058
life 2051
eg@@ 2050
amento 2033
dire 2022
u 2014
bas@@ 2014
ai@@ 2013
dove 2009
also 2009
altro 2004
far@@ 2004
aff@@ 2002
lot 2001
ay 1998
What 1994
ese 1993
ze 1967
ful 1961
può 1960
zi@@ 1960
tempo 1960
vel@@ 1952
migli@@ 1945
dal 1941
king 1939
only 1938
ava 1929
mar@@ 1926
azi@@ 1907
mente 1903
iti 1900
old 1900
any 1891
5 1887
mostr@@ 1885
tra 1882
inizi@@ 1880
evo 1877
sul 1870
'll 1868
peri@@ 1863
form@@ 1861
she 1860
There 1858
des@@ 1847
down 1836
vedere 1832
cambi@@ 1831
ca 1827
ari 1826
ho@@ 1826
sti@@ 1819
ten@@ 1819
rel@@ 1808
chiam@@ 1806
sur@@ 1799
did 1796
gn@@ 1794
sor@@ 1793
iti@@ 1792
davvero 1787
ff@@ 1778
succ@@ 1769
sap@@ 1767
take 1765
ca@@ 1761
its 1757
mai 1756
od 1756
around 1756
gli@@ 1755
uman@@ 1753
sco@@ 1753
put 1753
ess 1751
diamo 1748
.@@ 1747
19@@ 1747
need 1747
fe@@ 1745
’ 1744
ast@@ 1744
many 1743
ve@@ 1740
sulla 1736
ni 1734
ents 1731
good 1731
ancora 1727
ene 1725
proc@@ 1724
ase 1720
zza 1720
3@@ 1718
Se 1717
gente 1714
cap@@ 1712
deci@@ 1712
ito 1709
ort@@ 1707
ws 1703
mu@@ 1701
oni 1700
day 1699
meno 1696
mer@@ 1694
An@@ 1692
even 1692
um@@ 1690
ning 1690
atti@@ 1685
Ora 1683
gener@@ 1677
ard 1676
ini 1673
pic@@ 1671
ant@@ 1670
degli 1668
zzo 1666
ms 1660
ola 1659
unque 1656
we@@ 1655
ell@@ 1654
aggio 1652
tor@@ 1651
lic@@ 1647
ru@@ 1646
5@@ 1641
fic@@ 1639
end 1637
hi@@ 1636
zioni 1636
0 1634
L' 1628
tri@@ 1627
pas@@ 1622
ame 1621
rec@@ 1621
grande 1620
ic 1616
ong 1614
ted 1609
quel 1606
inc@@ 1605
spi@@ 1604
ment@@ 1604
quella 1596
r 1592
del@@ 1591
doing 1591
Questa 1585
f 1584
trov@@ 1580
olo 1580
pens@@ 1578
2 1578
different 1578
qual@@ 1577
dur@@ 1576
les 1575
esi 1573
anim@@ 1573
ear@@ 1573
10 1569
contr@@ 1568
na 1564
ever 1564
up@@ 1563
00 1562
8@@ 1558
Well 1557
being 1552
eff@@ 1550
her 1545
lar@@ 1542
voi 1539
rac@@ 1536
etti 1536
6@@ 1536
eri 1535
He 1535
through 1534
iamo 1533
fl@@ 1533
bil@@ 1531
als 1525
eva 1522
ant 1520
pp@@ 1520
sul@@ 1519
vir@@ 1519
sic@@ 1515
ran@@ 1515
ani 1512
ary 1512
etti@@ 1511
val@@ 1511
mag@@ 1510
cio 1510
use 1507
evol@@ 1505
If 1501
same 1501
mp@@ 1500
speci@@ 1495
ting 1492
sal@@ 1491
serv@@ 1491
rap@@ 1490
Talk 1484
gre@@ 1484
Th@@ 1480
ke 1479
ie 1475
Africa 1472
sempre 1466
dalla 1465
ren@@ 1465
costru@@ 1464
side 1458
divent@@ 1454
every 1450
oun@@ 1446
ace 1444
suo 1443
possiamo 1443
the@@ 1443
ations 1438
9@@ 1437
nostro 1437
ulti@@ 1433
ves 1433
leg@@ 1431
È 1421
ating 1421
volta 1419
Subtitles 1416
Transcript 1416
quanto 1413
dopo 1410
ies 1409
anza 1407
ave 1405
Co@@ 1400
tras@@ 1398
ving 1397
stor@@ 1395
Y@@ 1390
ect 1389
aut@@ 1386
der 1378
differ@@ 1375
ece 1374
bre@@ 1370
tipo 1370
called 1370
guar@@ 1368
tt@@ 1365
ari@@ 1365
made 1363
ont@@ 1358
univer@@ 1357
'd 1357
ste@@ 1356
stri@@ 1355
talk 1355
sua 1353
inv@@ 1352
design 1352
lavoro 1344
lavor@@ 1340
evano 1336
three 1336
tre 1333
app@@ 1333
4@@ 1331
nostra 1327
sti 1327
d' 1326
loo@@ 1323
altri 1322
mas@@ 1322
detto 1320
sho@@ 1316
Sono 1315
bel@@ 1315
punto 1315
Un@@ 1313
7@@ 1312
la@@ 1312
storia 1308
50 1308
stu@@ 1308
sy@@ 1308
ble 1308
fine 1306
Per 1304
mil@@ 1302
erano 1301
quindi 1298
ry 1298
self 1297
essi@@ 1296
computer 1294
Ho 1293
well 1292
ang@@ 1291
Ed 1290
Perché 1290
tel@@ 1287
inf@@ 1282
asi 1279
Si 1277
endere 1274
atter@@ 1271
vostr@@ 1269
sar@@ 1269
tutte 1267
uti 1266
20 1264
Ci 1259
du@@ 1258
ue 1258
comun@@ 1257
altra 1256
ì 1255
year 1255
itt@@ 1252
avere 1249
abil@@ 1247
ario 1246
present@@ 1240
why 1240
cin@@ 1239
ste 1238
ei 1236
bili 1235
pass@@ 1235
nell' 1232
cia 1231
ago 1231
cel@@ 1229
sen@@ 1229
ute 1228
viv@@ 1225
mento 1223
esto 1223
ance 1219
alizz@@ 1218
guard@@ 1214
senza 1214
ets 1214
fon@@ 1209
loc@@ 1207
dere 1207
arti@@ 1205
human 1205
man 1202
ssi@@ 1202
ates 1202
avo 1200
change 1200
ast 1198
arriv@@ 1196
tra@@ 1196
pers@@ 1194
fat@@ 1194
cul@@ 1194
happ@@ 1193
percent 1193
low 1192
sa@@ 1191
ure 1191
eng@@ 1188
fu@@ 1186
fun@@ 1186
circa 1183
ved 1183
ay@@ 1182
great 1182
proprio 1178
Così 1173
giorno 1172
qualche 1171
rei 1170
asp@@ 1170
cli@@ 1169
ically 1169
stesso 1168
mol@@ 1168
lun@@ 1167
ics 1166
some@@ 1163
8 1160
avano 1159
lear@@ 1159
big 1159
ned 1157
itu@@ 1155
problema 1154
nei 1153
incredi@@ 1153
emente 1152
ana 1151
ri 1151
fact 1151
temp@@ 1150
last 1150
bit 1149
bbero 1146
ding 1146
Come 1145
uti@@ 1144
picco@@ 1137
kes 1137
ord@@ 1135
show 1134
conc@@ 1131
tell 1131
stata 1130
colo 1128
red 1126
went 1126
Abbiamo 1125
,000 1125
dio 1124
lan@@ 1124
don@@ 1123
didn 1121
ces 1120
Wh@@ 1117
another 1117
let 1116
off 1115
sto 1114
coun@@ 1114
find 1111
cominci@@ 1110
prog@@ 1109
1 1109
ded 1109
fuori 1108
enzi@@ 1108
hav@@ 1107
aria 1105
thou@@ 1105
cos@@ 1103
vic@@ 1102
sort 1101
thought 1100
bene 1099
oggi 1096
mal@@ 1096
used 1096
ities 1094
ative 1091
ber@@ 1089
ke@@ 1088
started 1088
num@@ 1087
possono 1086
cerc@@ 1085
give 1085
place 1081
posto 1079
via 1077
not@@ 1075
Le 1074
atto 1074
sistema 1074
econo@@ 1074
cur@@ 1073
wing 1073
course 1071
4 1070
res 1070
funzion@@ 1069
riv@@ 1068
raga@@ 1068
bisogno 1066
dice 1066
complet@@ 1066
own 1065
esse 1062
cal@@ 1060
No 1059
importante 1058
3 1058
ef@@ 1057
mett@@ 1054
esempio 1053
should 1053
nat@@ 1052
ory 1050
età 1049
continu@@ 1048
reg@@ 1048
molti 1046
OK 1046
pag@@ 1045
son 1043
pul@@ 1042
um 1041
important 1041
wn 1040
nelle 1039
far 1038
ede 1036
senti@@ 1035
pi 1035
ved@@ 1034
ter 1034
stud@@ 1033
with@@ 1032
ans 1031
water 1029
spe@@ 1027
natur@@ 1026
today 1026
Ecco 1025
Mar@@ 1023
simp@@ 1022
perf@@ 1018
ings 1018
mis@@ 1015
und 1014
bambini 1013
kno@@ 1012
altre 1011
igli@@ 1010
after 1010
chio 1009
potre@@ 1008
parl@@ 1007
ori@@ 1006
ey 1005
glob@@ 1004
zzi 1004
mean 1004
hear@@ 1003
immag@@ 1002
realtà 1002
ini@@ 1001
7 1001
ep@@ 1001
cri@@ 1000
mus@@ 999
sel@@ 998
rebbe 998
zion@@ 998
erra 996
fam@@ 995
6 994
Per@@ 993
atori 992
war@@ 992
cono 989
cr@@ 989
before 989
start 989
every@@ 989
nuovo 988
Ri@@ 987
utt@@ 987
fo@@ 987
Quando 986
fis@@ 984
fel@@ 982
technology 982
agli@@ 980
better 980
ust 979
problem 979
does 976
possi@@ 974
part 973
maggi@@ 972
sta@@ 971
Un 970
story 970
arsi 967
him 967
disc@@ 965
mb@@ 965
plan@@ 965
beg@@ 964
ach@@ 964
bar@@ 962
moti@@ 961
organi@@ 961
gioc@@ 961
produc@@ 960
came 960
visto 959
Mi 956
acqua 956
ack 956
den@@ 955
next 954
never 954
ness@@ 953
pe 952
id 952
India 951
ins 951
star@@ 950
ition 950
S 948
vero 947
gono 947
momento 947
let@@ 946
test@@ 946
indi@@ 945
ambi@@ 941
tre@@ 941
agli 941
volte 940
ling 939
ei@@ 939
segu@@ 938
vo@@ 938
ere@@ 938
whole 938
nostri 936
svilu@@ 936
bb@@ 936
ppo 936
again 934
system 934
perim@@ 932
gior@@ 931
dall' 931
ep 931
ying 931
line 930
gia 929
looking 928
las@@ 927
potete 925
negli 924
Pen@@ 922
oper@@ 921
andare 921
ell 921
ors 919
libr@@ 917
viene 917
credo 916
tive 915
sing@@ 915
verso 914
polit@@ 913
jo@@ 912
off@@ 911
mark@@ 911
otog@@ 910
might 910
point 909
onal 909
led 908
stiamo 907
parti@@ 907
etro 907
long 906
tecnologia 905
ge@@ 905
still 905
prov@@ 904
penso 904
ove 903
partic@@ 901
ade 900
any@@ 900
voglio 899
Because 899
eri@@ 897
mili@@ 895
done 894
zed 893
ile 892
ject 892
atore 891
ner 890
essi 890
coll@@ 890
pren@@ 889
struc@@ 889
dist@@ 888
How 888
imag@@ 887
Grazie 885
ited 885
state 884
net 884
wer 884
together 882
few 880
det@@ 879
sk@@ 877
ello 877
fond@@ 877
9 877
fica 876
fron@@ 874
lui 874
love 874
too 874
abbi@@ 873
fu 873
part@@ 872
milioni 872
comes 872
bri@@ 871
inform@@ 871
Quest@@ 871
entr@@ 870
tanto 869
az@@ 869
New 869
ach 868
ous@@ 868
happen@@ 868
oce@@ 867
ben@@ 866
sioni 866
stanno 865
model@@ 863
30 860
fa@@ 860
alcuni 858
que 858
fosse 857
respon@@ 856
fino 856
af@@ 856
each 856
sei 855
quale 855
ea@@ 854
indu@@ 852
dati 849
specie 849
aveva 848
nu@@ 848
fre@@ 848
rius@@ 848
million 848
cir@@ 847
aying 847
act 846
materi@@ 844
uzione 844
When 844
200@@ 843
less 843
sarebbe 842
100 842
parlare 841
tions 840
wr@@ 840
real 840
So@@ 839
between 839
mentre 838
doesn 835
grup@@ 834
sub@@ 833
clo@@ 833
anti@@ 831
qui@@ 831
ane 831
biol@@ 831
found 831
C' 830
e-@@ 828
cas@@ 827
nuov@@ 827
questi@@ 827
macch@@ 826
commun@@ 826
ands 825
question 825
oso 824
aggiun@@ 823
% 823
Inter@@ 823
wi@@ 823
ordin@@ 822
dent@@ 822
ki@@ 822
try 822
ose 821
desig@@ 821
face 821
nel@@ 820
risp@@ 819
possibile 818
brain 818
ona 817
tly 817
Una 815
econ@@ 815
onale 814
fri@@ 814
alc@@ 812
wom@@ 812
creare 809
primo 808
wanted 808
ass@@ 807
Thank 807
ù 806
oni@@ 805
fami@@ 804
ater 804
away 804
light 804
senso 803
ational 803
avete 801
bor@@ 800
archit@@ 799
casa 797
occu@@ 797
call 795
gs 795
educ@@ 792
America 791
ada 791
bo 790
allo 789
cell@@ 789
dollari 788
pensare 788
fil@@ 788
reas@@ 788
molte 787
dev@@ 787
già 786
ll@@ 786
[ 786
] 786
qualcuno 785
ven 785
children 785
amb@@ 784
understand 784
princi@@ 783
ong@@ 783
data 780
za 779
ns 779
bl@@ 776
forse 775
divi@@ 774
quelle 774
chang@@ 773
tw@@ 772
dimen@@ 772
ver 772
fol@@ 772
vogli@@ 771
always 771
rete 770
capire 770
cost@@ 770
Li@@ 769
person 768
four 768
Tut@@ 767
coming 766
farlo 765
insegn@@ 765
sost@@ 765
air 764
control@@ 763
enze 763
program@@ 763
lì 762
allora 761
centr@@ 761
stuff 760
tto 759
video 759
grandi 758
stessa 758
net@@ 757
conosc@@ 757
uro@@ 757
trans@@ 757
scu@@ 756
working 755
ol 754
ects 753
insieme 751
abor@@ 751
problemi 749
evi@@ 748
elle 748
tal@@ 748
aggi@@ 747
lav@@ 747
prof@@ 746
ament@@ 746
sce 746
gh 745
ree 744
defin@@ 743
impar@@ 743
ricer@@ 742
land 742
tec@@ 741
pes@@ 741
usa 741
forma 741
sup@@ 741
may 741
cat@@ 740
ill 740
propri@@ 740
sic 740
Pot@@ 738
certo 737
secon@@ 737
believe 737
One 736
anz@@ 736
using 736
dre@@ 735
trying 735
veramente 733
diff@@ 732
film 731
città 731
ette 731
energia 730
Ar@@ 729
ys 729
live 729
vis@@ 728
sapete 728
dar@@ 727
evamo 726
kin@@ 726
acci@@ 726
regi@@ 725
sense 725
exp@@ 725
sch@@ 724
space 723
fanno 721
prat@@ 721
posi@@ 721
kids 721
everything 721
miei 720
robo@@ 720
bac@@ 720
building 720
Lo 719
persona 719
En@@ 719
ba@@ 717
arlo 716
stati 716
uta 716
ga 715
ot 714
cho@@ 714
money 714
adre 713
fort@@ 713
facendo 713
Here 713
individu@@ 712
erò 711
thinking 710
usto 709
capi@@ 709
cervello 709
create 709
dn 709
mbr@@ 708
sarà 708
orig@@ 707
ps 707
tutta 705
attraverso 705
stes@@ 704
har@@ 704
lev@@ 703
bli@@ 703
example 703
vor@@ 702
fan@@ 702
abbastanza 701
lasci@@ 700
ggi@@ 700
successo 699
produ@@ 699
out@@ 699
ays 698
emp@@ 697
selves 697
avuto 696
organ@@ 696
vari@@ 696
ones 696
ebbe 695
vu@@ 695
caso 695
top 694
took 694
Pro@@ 693
ution 693
sing 693
Oh 692
says 692
Go@@ 691
ee 690
potrebbe 690
hal@@ 690
ness 689
inst@@ 689
ick@@ 688
pet@@ 687
getting 687
sure 686
lim@@ 686
matt@@ 686
power 686
erà 685
dia 685
sin@@ 685
opportun@@ 684
enor@@ 684
char@@ 684
vie@@ 683
meglio 682
intelli@@ 682
disse 681
edi@@ 681
ragi@@ 681
ans@@ 681
quite 681
dro@@ 680
form 680
ban@@ 679
hop@@ 679
energy 679
making 678
progetto 677
domanda 677
lead@@ 677
ak@@ 677
exc@@ 677
dobbiamo 676
enough 676
ea 675
esist@@ 675
interesting 675
clas@@ 674
medi@@ 673
buil@@ 673
vers@@ 672
tà 671
dollars 671
gi 670
dai 670
ature 670
These 670
remmo 669
Io 669
dir@@ 668
positi@@ 668
wer@@ 668
ty@@ 668
feel 668
innov@@ 667
consu@@ 667
dire@@ 666
quali 666
Jo@@ 665
perto 664
lei 664
movi@@ 664
ement 664
ardi 663
atta 663
semb@@ 663
aw@@ 663
set 663
alcune 662
import@@ 662
probabil@@ 662
experi@@ 662
Earth 661
amp@@ 660
aia 660
non@@ 660
spazio 660
colo@@ 659
posta 659
air@@ 659
auti@@ 659
my@@ 659
rol@@ 658
country 658
necess@@ 656
capac@@ 655
ak 655
school 655
diffici@@ 654
uro 653
high@@ 653
heal@@ 653
effetti 652
.000 652
D 652
future 652
expl@@ 652
V 651
siano 651
visi@@ 651
gir@@ 650
Americ@@ 649
blo@@ 649
need@@ 648
ena 646
media 646
business 646
situ@@ 646
bro@@ 646
My 646
food 646
uni@@ 645
dato 645
B 645
case 645
Che 644
Par@@ 644
quattro 644
happened 644
develop@@ 644
Beh 643
ain 643
five 643
mini 642
ty 641
mano 640
ward 640
second 639
orno 638
oltre 638
15 637
rem@@ 637
strum@@ 637
assi@@ 636
help 636
o-@@ 635
stra 635
dare 634
bilità 634
futuro 634
secondo 634
plac@@ 634
probably 634
pubbl@@ 633
semplic@@ 633
ouse 633
op 633
ular 633
comm@@ 632
Ne@@ 632
anc@@ 632
memb@@ 632
ross 632
won@@ 632
ey@@ 631
dig@@ 631
nam@@ 631
Su@@ 631
Con@@ 630
elec@@ 629
number 628
piamo 627
segn@@ 627
scal@@ 626
maybe 626
plic@@ 625
cc@@ 625
York 625
icro@@ 624
etta 624
sue 624
govern@@ 624
possible 624
icamente 623
play 623
anzi@@ 622
ready 622
anything 622
book 622
sper@@ 620
avamo 619
idee 619
pan@@ 619
sive 619
piccolo 618
pon@@ 618
studi@@ 618
ems 618
talking 617
Gu@@ 616
ths 616
nostre 615
dol@@ 614
conv@@ 614
foto 614
Mo@@ 614
Gi@@ 613
small 613
grado 612
pun@@ 612
eria 611
semplice 611
adesso 611
dise@@ 611
see@@ 611
ick 610
lion 610
legg@@ 609
pt 609
post@@ 608
Di@@ 607
consider@@ 607
dy 607
ses 607
stru@@ 606
pover@@ 606
giu@@ 606
pretty 606
Av@@ 605
sotto 605
dec@@ 604
planet 604
carb@@ 603
pir@@ 603
proble@@ 603
means 603
norm@@ 602
left 602
read 602
She 602
care 601
mic 601
uomo 600
prodo@@ 600
science 600
interessante 599
tiv@@ 599
tain 599
times 599
menti 598
ft 598
20@@ 597
oro 596
otten@@ 596
compl@@ 596
area 596
ish 596
room 596
signific@@ 595
lit@@ 595
cresc@@ 595
arono 595
ments 595
move 595
ful@@ 594
ask 593
seen 593
immagin@@ 592
Z@@ 592
ther@@ 592
chil@@ 592
ecc@@ 591
facciamo 591
niente 590
prossi@@ 590
low@@ 590
information 590
build 590
colare 589
merc@@ 589
religi@@ 589
Voglio 588
usare 588
amenti 588
arci 588
become 588
hist@@ 588
quelli 587
sult@@ 587
tor 587
perc@@ 587
best 587
pena 586
tto@@ 586
stre@@ 586
ideas 585
40 584
comb@@ 584
wee@@ 584
invest@@ 583
aiut@@ 583
vedete 583
dr@@ 583
ways 583
ella 582
wat@@ 582
perchè 581
over@@ 581
ult 581
pianeta 579
invent@@ 579
tries 579
ship 578
aver@@ 575
fe 573
fos@@ 567
vent@@ 558
nec@@ 556
bamb@@ 553
,@@ 552
nor@@ 550
C 549
sign@@ 532
O 532
signi@@ 531
comput@@ 531
ok 519
gan@@ 519
chan@@ 518
ide@@ 517
ut 513
sm@@ 511
vello 510
abb@@ 508
gno 507
ogy 502
hel@@ 501
ciamo 499
duc@@ 495
ank 492
gra@@ 491
om 491
tech@@ 490
interess@@ 487
dav@@ 485
z 484
uo@@ 482
ché 481
ether 476
gover@@ 469
contin@@ 467
ich 461
azie 460
pubb@@ 457
doman@@ 456
anto 452
osc@@ 450
quest@@ 450
incre@@ 449
hap@@ 448
rou@@ 448
real@@ 443
consi@@ 439
ld 439
T 437
under@@ 437
inci@@ 432
quel@@ 425
aid 422
000 409
aga@@ 404
men@@ 401
underst@@ 398
interest@@ 396
ogli@@ 395
tut@@ 392
shi@@ 392
ith 391
cres@@ 380
” 371
glio 368
gran@@ 368
ow 367
ros@@ 366
mac@@ 357
L 355
int 355
pian@@ 351
H 351
acqu@@ 350
Be@@ 350
coul@@ 350
G 341
read@@ 338
ye@@ 330
biamo 328
beli@@ 327
Afr@@ 323
“ 321
alk 321
M 320
agi@@ 316
P 314
siste@@ 313
nolo@@ 313
biso@@ 310
tecnolo@@ 307
iness 304
TE@@ 297
ir 290
X@@ 287
/ 285
progr@@ 284
chè 279
ople 277
Gr@@ 275
bra@@ 265
vide@@ 264
ff 263
tit@@ 263
wan@@ 263
ause 260
year@@ 260
– 254
ber 254
esemp@@ 253
R 249
attr@@ 248
eta 247
cour@@ 246
bus@@ 245
very@@ 239
eve 236
nol@@ 235
xt 232
ener@@ 231
stre 228
ll 228
F 227
W 225
fore 225
scri@@ 224
ably 222
arch@@ 219
q 217
K 213
scho@@ 210
fir@@ 206
devel@@ 206
X 202
attraver@@ 200
lob@@ 198
mes 196
ould 187
call@@ 185
insi@@ 183
sempl@@ 177
v 172
fro@@ 166
actu@@ 166
citt@@ 164
$ 157
stem 157
energ@@ 153
thin@@ 153
spazi@@ 152
N 148
ough 146
nov@@ 143
muc@@ 140
etting 129
throu@@ 128
'@@ 126
.. 122
etter 120
cuno 120
eme 117
cco 110
Q@@ 109
hum@@ 109
prob@@ 108
reli@@ 106
Cos@@ 99
oglio 98
cora 98
U 96
fut@@ 95
& 94
dollar@@ 91
altr@@ 90
J 83
technol@@ 72
° 71
Tran@@ 69
elli@@ 67
ound 66
Y 64
q@@ 62
ú 58
é@@ 56
Ear@@ 55
ample 52
Yor@@ 51
— 50
semp@@ 49
@ 47
ou 46
Z 46
á 46
Q 46
… 45
bet@@ 44
may@@ 43
« 42
» 42
+ 40
ittle 39
dren 37
) 36
É 35
attro 32
svi@@ 32
ó 31
indi 29
´ 27
bbe 27
í 27
tty 27
è@@ 25
Sub@@ 24
titles 24
ö@@ 23
script 22
à@@ 20
# 20
* 19
j 17
Amer@@ 16
ween 16
tog@@ 15
= 14
( 14
ì@@ 14
esn 14
astanza 12
portun@@ 12
á@@ 12
ò@@ 10
ü@@ 10
ñ@@ 8
ó@@ 7
í@@ 6
ä@@ 6
‘ 5
alcun@@ 5
² 5
ã@@ 5
ç@@ 4
indivi@@ 4
^ 4
¼ 3
ù@@ 3
` 3
ú@@ 3
â@@ 3
É@@ 3
ā@@ 3
ï@@ 3
♪ 3
½ 2
€ 2
û 2
ê@@ 2
ć 2
˚ 2
£ 2
bbiamo 2
Ç@@ 2
`@@ 1
™ 1
İ@@ 1
nostr@@ 1
® 1
ž@@ 1
ѐ 1
¥ 1
© 1
ś@@ 1
º@@ 1
√ 1
± 1
