, 121189
. 102805
the 78420
to 47813
of 45969
a 42640
and 40769
that 34690
I 32913
in 31910
is 27810
it 26140
you 26001
's 23061
we 20411
s 20189
And 19352
this 16573
ed 16416
ing 16306
es 16189
on 15272
" 14416
-- 13671
s@@ 12701
h@@ 12610
in@@ 11992
y 11948
was 11568
are 11498
d@@ 11136
an 10865
for 10619
have 10601
c@@ 10557
al 10551
e@@ 10500
w@@ 10348
they 10028
er 9472
re@@ 9456
b@@ 9445
with 9212
at 9198
? 9182
o@@ 9138
t 8981
can 8912
one 8837
't 8831
g@@ 8823
l@@ 8798
what 8746
t@@ 8705
f@@ 8689
about 8683
be 8583
So 8416
as 8403
or 8315
-@@ 8287
all 8183
p@@ 8177
st@@ 7913
m@@ 7781
a@@ 7731
ly 7647
: 7462
i@@ 7458
y@@ 7353
do 7188
there 7171
not 7106
d 6903
r@@ 6856
al@@ 6711
u@@ 6606
er@@ 6602
ar@@ 6585
It 6484
're 6480
en@@ 6381
un@@ 6340
en 6320
li@@ 6317
like 6144
k@@ 6005
n@@ 5987
so 5975
from 5960
people 5953
at@@ 5947
S@@ 5914
de@@ 5865
me 5860
on@@ 5846
out 5810
ation 5803
my 5800
ity 5725
very 5541
ac@@ 5414
le@@ 5359
up 5352
know 5305
just 5232
an@@ 5220
The 5215
but 5123
ch@@ 5116
h 5096
th@@ 5077
le 5028
as@@ 5014
mo@@ 5002
We 4925
But 4897
going 4891
our 4886
n 4884
co@@ 4852
A@@ 4771
if 4757
these 4749
ers 4734
M@@ 4515
it@@ 4427
them 4421
by 4413
here 4346
or@@ 4344
se@@ 4299
think 4295
which 4256
con@@ 4239
he 4223
ds 4186
e 4178
B@@ 4177
because 4166
di@@ 4160
get 4156
el@@ 4150
am@@ 4149
ro@@ 4142
se 4124
see 4092
ri@@ 4092
D@@ 4071
ar 4054
su@@ 4048
had 4044
ent 4027
ts 4027
si@@ 4024
ex@@ 3985
sh@@ 3977
ec@@ 3959
us 3930
ap@@ 3930
more 3927
ad@@ 3922
ate 3914
really 3913
how 3905
when 3902
m 3836
C@@ 3809
This 3780
lo@@ 3778
've 3755
would 3710
ur@@ 3674
You 3652
ol@@ 3643
your 3632
'm 3625
k 3613
who 3589
way 3588
world 3588
then 3492
tr@@ 3478
sp@@ 3451
were 3443
time 3430
ic@@ 3422
ks 3411
where 3401
don 3377
things 3373
has 3368
c 3318
v@@ 3311
their 3291
l 3255
P@@ 3255
some 3241
pro@@ 3235
thing 3216
th 3196
actually 3162
go 3161
et@@ 3154
into 3146
T@@ 3132
age 3128
po@@ 3098
be@@ 3078
W@@ 3071
able 3070
years 3063
ally 3057
bo@@ 3051
il@@ 3043
will 3037
E@@ 3027
et 3025
now 3006
H@@ 2996
ti@@ 2973
ma@@ 2965
me@@ 2960
ul@@ 2958
L@@ 2937
ag@@ 2932
res@@ 2926
st 2913
ons 2904
fi@@ 2889
ce 2881
tion 2874
gu@@ 2868
want 2865
F@@ 2859
N@@ 2859
G@@ 2826
♫ 2826
j@@ 2815
ad 2808
wor@@ 2807
other 2803
O@@ 2791
z@@ 2753
make 2735
ph@@ 2713
w 2687
said 2685
ence 2673
ra@@ 2673
could 2650
They 2650
R@@ 2648
been 2635
min@@ 2630
p 2613
Now 2584
qu@@ 2577
ge 2568
to@@ 2567
right 2554
te@@ 2553
ch 2549
ou@@ 2537
mi@@ 2526
1@@ 2522
est 2517
got 2511
ut@@ 2463
for@@ 2455
ice 2450
ment 2448
ta@@ 2448
something 2448
little 2426
ter@@ 2426
comp@@ 2424
vi@@ 2422
wh@@ 2418
do@@ 2409
ent@@ 2391
im@@ 2374
ab@@ 2374
ked 2371
much 2344
ght 2310
ous 2303
ve 2294
x@@ 2287
That 2286
most 2279
I@@ 2275
str@@ 2269
say 2264
ine 2259
enti@@ 2258
work 2258
than 2242
kind 2238
two 2222
is@@ 2208
no 2202
av@@ 2196
first 2195
back 2190
pl@@ 2180
sion 2176
look 2170
gh@@ 2161
; 2149
ne@@ 2145
our@@ 2142
pi@@ 2138
ated 2137
op@@ 2121
those 2114
his 2085
new 2078
over 2063
body 2063
per@@ 2059
ther 2055
ical 2052
ely 2049
and@@ 2047
gro@@ 2047
life 2042
ver@@ 2040
gi@@ 2038
lot 1991
What 1989
g 1973
also 1970
so@@ 1968
he@@ 1957
ful 1954
no@@ 1944
only 1938
ci@@ 1928
es@@ 1900
A 1894
king 1887
old 1884
gr@@ 1875
J@@ 1869
'll 1868
any 1862
There 1858
am 1858
she 1853
lu@@ 1849
come 1843
down 1829
ture 1824
ati@@ 1812
sc@@ 1798
did 1795
In 1793
x 1792
us@@ 1777
bi@@ 1767
take 1765
around 1756
cre@@ 1756
its 1750
need 1747
many 1743
good 1729
ents 1724
par@@ 1722
tur@@ 1715
sol@@ 1699
put 1692
day 1680
ning 1678
de 1675
ess 1674
0@@ 1673
ws 1653
em@@ 1649
ho@@ 1648
even 1645
ali@@ 1645
au@@ 1632
K@@ 1628
ms 1618
ay 1615
pre@@ 1615
ted 1609
o 1600
ess@@ 1596
doing 1591
ic 1584
end 1581
od 1581
b 1578
different 1578
Well 1557
tu@@ 1554
being 1552
ever 1551
ob@@ 1550
ite 1547
re 1545
He 1535
through 1533
her 1527
als 1515
est@@ 1514
same 1501
If 1499
pe@@ 1495
ting 1488
br@@ 1483
ear@@ 1478
ong 1475
dis@@ 1474
ary 1470
ant 1466
ir@@ 1459
les 1452
every 1450
use 1442
side 1440
ist@@ 1435
ations 1432
Ch@@ 1428
ating 1419
f 1417
om@@ 1413
up@@ 1407
we@@ 1406
ves 1406
ies 1403
go@@ 1403
fin@@ 1401
all@@ 1397
sur@@ 1394
ving 1388
2@@ 1385
the@@ 1382
ect 1374
fe@@ 1374
inter@@ 1374
der@@ 1372
called 1370
ze 1367
'd 1357
el 1357
made 1356
oun@@ 1356
il 1342
car@@ 1339
ke 1337
three 1336
pres@@ 1325
pic@@ 1324
ev@@ 1323
loo@@ 1315
ame 1312
talk 1306
Th@@ 1304
cu@@ 1301
der 1301
ble 1298
self 1294
sho@@ 1290
met@@ 1287
ig@@ 1285
ard 1284
sy@@ 1271
mon@@ 1269
year 1255
well 1251
hi@@ 1248
cor@@ 1241
why 1238
gen@@ 1213
human 1204
rel@@ 1200
change 1198
r 1196
ets 1194
idea 1194
percent 1193
happ@@ 1192
TED 1184
ved 1183
great 1182
iti@@ 1174
ically 1167
ed@@ 1166
some@@ 1163
bil@@ 1159
ates 1158
ste@@ 1157
big 1156
ned 1156
man@@ 1156
lear@@ 1155
fact 1151
last 1150
ast 1149
ance 1138
Y@@ 1133
tell 1131
ding 1131
ics 1131
kes 1131
pri@@ 1130
la@@ 1128
went 1125
cent@@ 1123
didn 1121
another 1117
low 1116
ell@@ 1115
U@@ 1112
ici@@ 1112
ces 1112
find 1111
ded 1109
V@@ 1109
bit 1108
hav@@ 1106
off 1105
rec@@ 1105
ry 1104
thou@@ 1103
coun@@ 1103
ave 1102
red 1101
sort 1101
thought 1100
let 1097
used 1096
.@@ 1094
show 1092
started 1088
ities 1088
og@@ 1088
bu@@ 1086
ni@@ 1084
ure 1084
bas@@ 1082
place 1080
give 1080
ase 1079
ue 1075
gre@@ 1074
ai@@ 1072
end@@ 1071
course 1071
wing 1070
soci@@ 1067
ago 1066
,000 1066
per 1058
res 1055
should 1053
own 1050
ke@@ 1046
un 1043
Wh@@ 1042
important 1041
uc@@ 1040
eng@@ 1037
with@@ 1032
today 1026
ay@@ 1024
ory 1023
Al@@ 1023
water 1021
' 1018
after 1010
kno@@ 1010
tri@@ 1009
ings 1006
mean 1004
hear@@ 1003
ast@@ 1002
vir@@ 1000
gg@@ 996
simp@@ 990
lar@@ 990
before 989
pr@@ 989
start 989
every@@ 989
ot@@ 988
dic@@ 986
wn 985
technology 982
better 979
does 976
problem 973
pa@@ 971
part 971
story 967
tro@@ 967
! 966
des@@ 966
ans 966
him 965
cer@@ 963
ust 962
19@@ 961
ter 960
came 960
imp@@ 960
beg@@ 959
oc@@ 954
never 954
next 952
und 948
ition 944
war@@ 938
whole 938
lin@@ 936
man 934
again 934
system 934
ins 932
speci@@ 931
mar@@ 929
ying 928
looking 928
fl@@ 926
St@@ 924
pu@@ 923
col@@ 919
int@@ 919
bre@@ 913
might 910
ep 908
point 906
long 905
still 905
led 902
ors 901
rit@@ 899
onal 899
Because 899
3@@ 898
jo@@ 894
zed 893
um 892
ach@@ 891
struc@@ 888
How 887
plan@@ 884
done 884
produc@@ 884
together 882
ited 881
imag@@ 881
few 880
ling 880
5@@ 879
ing@@ 877
mat@@ 877
any@@ 875
ject 875
too 874
pos@@ 873
ei@@ 872
comes 872
can@@ 872
love 870
design 869
id@@ 868
ell 868
happen@@ 868
att@@ 866
ous@@ 860
ep@@ 860
pul@@ 857
each 854
wer 853
million 848
ack 848
aying 846
sa@@ 845
When 844
between 839
less 838
act 838
real 838
tive 836
tions 836
mor@@ 836
doesn 835
fun@@ 835
ach 832
loc@@ 832
found 830
wr@@ 828
question 825
com@@ 824
ran@@ 824
clo@@ 823
form@@ 822
ands 820
mp@@ 820
commun@@ 818
mark@@ 818
ative 817
ort@@ 817
tly 817
brain 817
fac@@ 816
try 816
sk@@ 815
mil@@ 811
wom@@ 811
5 810
wanted 808
Thank 807
10 807
face 806
pen@@ 804
ru@@ 804
light 802
away 801
gener@@ 800
’ 797
vol@@ 793
sci@@ 793
call 792
8@@ 789
wi@@ 788
ser@@ 788
ea@@ 785
children 785
OK 784
reas@@ 784
understand 784
ven 781
Africa 779
star@@ 778
tra@@ 777
tre@@ 776
ia 776
i 776
ater 774
6@@ 773
always 771
ang@@ 770
ore 769
fa@@ 768
four 766
person 766
coming 765
deci@@ 763
fo@@ 761
ns 761
id 760
stuff 760
ey 759
gs 759
lic@@ 758
proc@@ 756
spe@@ 755
pe 754
Talk 752
ects 752
working 752
chang@@ 752
itt@@ 746
fri@@ 746
fr@@ 746
inc@@ 746
anim@@ 741
may 741
te 740
believe 737
rap@@ 737
using 736
trying 735
00 731
ree 729
cur@@ 729
air 727
exp@@ 725
sic 725
sense 724
live 723
everything 721
sel@@ 721
pol@@ 720
kids 720
trans@@ 718
building 718
space 716
ys 715
9@@ 714
money 714
Here 712
um@@ 712
acc@@ 711
thinking 710
dn 709
mu@@ 709
Subtitles 708
Transcript 708
partic@@ 708
One 707
ational 707
example 703
sub@@ 702
In@@ 700
line 700
eff@@ 699
selves 697
dre@@ 697
ays 696
2 696
gh 695
took 694
por@@ 693
says 692
4@@ 691
ution 690
getting 687
univer@@ 687
power 685
ps 685
cli@@ 683
quite 681
form 680
energy 679
sing 679
vie@@ 678
hal@@ 678
exc@@ 677
fami@@ 676
making 676
enough 676
interesting 675
hop@@ 675
stor@@ 673
ef@@ 673
ari@@ 673
out@@ 673
buil@@ 672
char@@ 672
dollars 671
create 670
These 669
ver 668
ones 668
ot 667
ong@@ 667
e-@@ 667
feel 666
pp@@ 665
cho@@ 664
7@@ 664
pas@@ 663
ty@@ 661
experi@@ 661
So@@ 660
ale 660
val@@ 660
ness 658
country 656
land 656
ki@@ 655
ute 654
0 653
heal@@ 653
school 653
expl@@ 652
wer@@ 650
my@@ 650
need@@ 648
tor@@ 647
sure 647
ement 645
happened 644
develop@@ 644
air@@ 643
cap@@ 643
five 643
sti@@ 643
ans@@ 642
data 642
high@@ 641
vel@@ 639
second 639
desig@@ 638
kin@@ 638
help 636
My 634
probably 634
ick@@ 633
An@@ 632
won@@ 632
ca@@ 631
az@@ 631
future 630
cul@@ 630
memb@@ 629
number 628
No 628
food 628
elec@@ 627
maybe 626
ular 626
chi@@ 625
ross 623
possible 621
play 621
anything 620
evol@@ 620
talking 617
ems 617
20 617
ak 617
ain 616
ment@@ 616
top 616
ready 614
ty 614
mag@@ 614
ths 613
small 613
spi@@ 613
har@@ 612
50 611
see@@ 611
set 610
pt 609
pretty 606
ses 606
... 605
Earth 605
lan@@ 604
abil@@ 604
planet 604
lion 604
means 603
She 602
sen@@ 602
ten@@ 602
left 601
read 601
fol@@ 600
mic 599
science 598
times 598
Un@@ 595
move 595
plac@@ 594
book 594
ments 593
room 593
seen 593
stri@@ 592
ask 591
sta@@ 590
tain 590
build 590
information 589
op 589
become 588
mis@@ 588
hist@@ 588
sing@@ 586
best 586
tw@@ 585
son 585
ideas 585
ey@@ 583
ways 579
ner 579
econo@@ 579
tries 579
bac@@ 579
sive 578
ris@@ 575
ult 575
ouse 573
auti@@ 573
chil@@ 573
respon@@ 572
low@@ 571
bor@@ 571
ful@@ 569
sup@@ 569
bli@@ 569
tal@@ 566
proble@@ 565
serv@@ 564
ant@@ 564
ther@@ 562
uman@@ 561
ish 560
tor 559
wee@@ 558
stud@@ 558
ward 558
ill 557
coll@@ 556
dro@@ 556
inst@@ 553
ge@@ 551
wat@@ 549
bro@@ 547
off@@ 544
cam@@ 544
computer 542
ol 539
ile 538
bl@@ 537
differ@@ 535
nec@@ 533
gn@@ 530
Mar@@ 530
ff@@ 526
atter@@ 526
8 525
S 525
educ@@ 525
inf@@ 521
Ri@@ 521
ship 520
glob@@ 519
ick 518
dy 517
case 516
cr@@ 510
Americ@@ 510
En@@ 510
chan@@ 507
fer@@ 504
mas@@ 503
govern@@ 503
Li@@ 502
comm@@ 500
ft 499
bri@@ 498
part@@ 497
1 497
nat@@ 497
aw@@ 495
hel@@ 494
business 493
nam@@ 491
India 491
ose 489
stu@@ 488
cont@@ 487
ogy 487
ak@@ 486
care 486
tech@@ 485
det@@ 482
net 481
ut 480
ether 476
incredi@@ 476
New 474
ade 473
ina 473
ba@@ 473
ece 470
cri@@ 469
ank 468
ace 468
anc@@ 468
far 466
Inter@@ 466
fe 464
temp@@ 460
inv@@ 460
fu@@ 456
lead@@ 456
dise@@ 456
succ@@ 455
mb@@ 453
app@@ 452
af@@ 452
cell@@ 450
ord@@ 449
den@@ 448
riv@@ 446
oce@@ 446
du@@ 445
conc@@ 444
del@@ 443
ber@@ 443
hap@@ 440
7 440
comput@@ 440
[ 439
] 439
complet@@ 438
eg@@ 437
matt@@ 437
lit@@ 437
fron@@ 436
ric@@ 435
4 434
Go@@ 434
organi@@ 431
net@@ 430
qui@@ 430
dr@@ 430
stre@@ 429
over@@ 428
100 427
under@@ 427
os@@ 424
3 424
9 424
rou@@ 423
200@@ 423
ich 421
6 421
otog@@ 421
America 419
u 417
sin@@ 416
aid 416
polit@@ 416
perim@@ 415
gir@@ 414
natur@@ 410
Oh 410
indu@@ 407
ese 407
ve@@ 406
30 406
duc@@ 401
biol@@ 400
itu@@ 398
archit@@ 398
questi@@ 398
underst@@ 398
materi@@ 397
sm@@ 396
interest@@ 396
ature 395
aff@@ 395
mer@@ 394
fil@@ 393
del 392
ori@@ 391
aut@@ 390
video 390
emp@@ 388
fis@@ 387
pers@@ 386
da 385
arti@@ 385
Mo@@ 384
sic@@ 384
uro@@ 383
oper@@ 380
lev@@ 379
not@@ 378
shi@@ 377
clas@@ 377
incre@@ 377
ld 376
ole 374
om 373
moti@@ 372
pot@@ 369
cat@@ 366
eri@@ 364
individu@@ 363
far@@ 363
V 362
opportun@@ 361
fre@@ 361
vo@@ 360
prof@@ 359
evi@@ 359
robo@@ 359
state 356
mol@@ 355
ulti@@ 354
real@@ 351
coul@@ 350
o-@@ 349
las@@ 349
uti@@ 348
organ@@ 348
area 347
Ar@@ 346
dist@@ 346
cir@@ 345
vari@@ 345
20@@ 344
rem@@ 343
tel@@ 343
ll@@ 342
rac@@ 340
Jo@@ 339
D 337
ordin@@ 336
read@@ 334
ok 333
dig@@ 332
fel@@ 331
B 331
fort@@ 330
diff@@ 330
bar@@ 330
aga@@ 330
tt@@ 329
tiv@@ 328
ere@@ 327
medi@@ 326
vers@@ 326
beli@@ 326
int 322
icro@@ 320
ye@@ 319
sign@@ 318
ren@@ 317
contin@@ 316
orig@@ 316
ith 314
present@@ 314
alk 313
bel@@ 312
York 312
qual@@ 311
sor@@ 310
cas@@ 309
fic@@ 309
Co@@ 308
uni@@ 308
perf@@ 306
lim@@ 303
Z@@ 303
non@@ 302
consu@@ 301
tec@@ 301
15 298
blo@@ 298
era 298
sue 297
dec@@ 297
gli@@ 294
iness 289
aver@@ 288
movi@@ 288
reg@@ 287
innov@@ 286
possi@@ 286
religi@@ 286
norm@@ 286
oni@@ 285
defin@@ 284
progr@@ 284
ee 284
visi@@ 282
dar@@ 282
ben@@ 281
tto@@ 279
film 279
40 278
Ne@@ 278
cel@@ 276
mus@@ 275
dur@@ 274
ople 274
ma 272
anti@@ 271
ven@@ 269
ire 268
ow 268
port@@ 265
Afr@@ 265
C 264
ide@@ 264
dev@@ 261
regi@@ 261
year@@ 260
,@@ 258
econ@@ 257
ban@@ 256
situ@@ 256
nolo@@ 255
num@@ 255
intelli@@ 255
peri@@ 253
bb@@ 253
z 252
vent@@ 251
diver@@ 251
dimen@@ 251
conv@@ 250
dol@@ 249
carb@@ 247
T 247
la 246
media 244
Be@@ 243
cour@@ 243
wan@@ 243
positi@@ 242
invest@@ 242
centr@@ 242
Par@@ 240
leg@@ 240
pan@@ 239
very@@ 238
essi@@ 237
ero 237
gra@@ 236
invent@@ 235
amb@@ 234
xt 231
Con@@ 230
abor@@ 230
ass@@ 230
gan@@ 228
ber 227
mal@@ 227
produ@@ 224
rol@@ 224
que 224
ini@@ 223
comb@@ 222
ably 222
let@@ 222
Pro@@ 220
ament@@ 219
continu@@ 218
post@@ 214
ove 214
fine 213
fore 210
scho@@ 210
ete 209
studi@@ 208
ta 208
princi@@ 207
devel@@ 206
ll 204
vic@@ 204
ov@@ 203
ra 199
fam@@ 199
program@@ 199
bra@@ 198
disc@@ 197
dio 197
ir 195
ssi@@ 195
nor@@ 195
test@@ 195
necess@@ 194
zz@@ 193
secon@@ 193
ause 192
mes 192
P 192
Su@@ 192
plic@@ 191
prog@@ 190
contr@@ 189
bus@@ 189
fan@@ 188
H 188
sal@@ 187
pover@@ 186
ana 184
call@@ 184
model@@ 183
M 183
cos@@ 182
consi@@ 181
ho 181
ont@@ 181
ene 180
sia 179
ff 177
ane 177
dia 176
pass@@ 176
ould 173
Di@@ 172
enor@@ 172
lun@@ 171
cal@@ 170
signific@@ 169
alc@@ 167
ai 167
arch@@ 166
cost@@ 165
actu@@ 164
ha 164
TE@@ 160
/ 159
cin@@ 158
G 157
lav@@ 156
control@@ 154
thin@@ 153
perc@@ 153
import@@ 151
E 151
pon@@ 150
stem 147
vis@@ 146
eve 145
aria 144
pren@@ 143
pag@@ 142
ett@@ 141
O 140
sco@@ 140
R 139
asp@@ 138
men@@ 138
bile 138
sch@@ 138
Per@@ 138
fir@@ 136
ough 136
tra 134
F 134
divi@@ 134
strum@@ 133
assi@@ 132
viv@@ 131
sul@@ 129
con 129
throu@@ 128
anz@@ 128
etting 127
lo 127
fro@@ 127
compl@@ 124
scal@@ 123
X@@ 123
capac@@ 122
consider@@ 121
insi@@ 120
acci@@ 120
ros@@ 119
occu@@ 118
eria 117
colo@@ 117
pet@@ 116
K 116
ica 114
q 114
li 114
W 113
lob@@ 113
Qu@@ 110
na 109
attr@@ 109
etter 108
ere 108
Gr@@ 108
'@@ 108
stru@@ 108
L 108
don@@ 107
Gu@@ 107
abb@@ 107
ie 105
utt@@ 104
mac@@ 104
reli@@ 104
libr@@ 104
nu@@ 102
arriv@@ 102
vide@@ 100
hum@@ 98
ea 98
amp@@ 98
inci@@ 97
ne 95
tit@@ 95
propri@@ 95
azi@@ 93
semb@@ 91
dent@@ 91
ener@@ 89
nel 89
$ 88
fos@@ 83
nel@@ 83
ano 83
Gi@@ 82
ada 82
mo 82
ena 81
di 81
pir@@ 78
N 76
ola 74
Come 73
technol@@ 72
X 72
nov@@ 72
ste 70
ico 70
guar@@ 70
scri@@ 69
gran@@ 68
ro 66
000 65
ani 64
dir@@ 64
sa 64
io 62
indi@@ 62
acqu@@ 59
prov@@ 59
iti 58
due 58
v 58
parti@@ 57
ambi@@ 57
inform@@ 57
via 57
fat@@ 57
ness@@ 56
bo 56
ound 55
cc@@ 54
probabil@@ 54
agi@@ 53
sar@@ 53
tras@@ 53
ato 53
che 52
- 51
ample 51
pun@@ 51
ita 50
ello 50
ini 50
Pen@@ 50
edi@@ 50
Ear@@ 49
ri 49
ette 48
fare 46
zi@@ 46
Q@@ 46
sper@@ 46
& 45
J 44
ata 44
gover@@ 43
La 43
ora 42
U 42
q@@ 40
za 39
si 39
va 39
nol@@ 38
entr@@ 38
ura 38
ali 37
etti 36
ario 36
co 35
ino 34
may@@ 34
dren 34
ona 34
ca 33
ittle 33
vor@@ 33
mbr@@ 33
quel@@ 33
mi 33
Y 32
gi 32
quest@@ 30
ou 30
fut@@ 30
Q 29
Yor@@ 28
erra 28
tut@@ 28
Tran@@ 27
ati 27
energ@@ 26
eme 26
mia 26
sta 25
bet@@ 25
Z 25
tty 25
ci 24
ito 24
titles 24
ono 23
ori 23
ari 23
sult@@ 23
zza 23
una 23
elli@@ 22
scu@@ 22
altr@@ 22
vo 21
é 20
+ 20
solo 19
ni 19
chi 19
ga 19
% 19
senti@@ 18
dice 18
mili@@ 18
dal 18
atti@@ 18
Sub@@ 18
fu 18
dare 17
non 17
lei 17
ella 17
script 17
endo 16
) 16
gia 16
prob@@ 16
ava 15
Ed 15
ti 15
eva 15
elle 15
ween 14
po 14
Pot@@ 14
pian@@ 14
rete 14
esn 14
Ma 13
quel 13
legg@@ 13
etto 12
fa 12
# 12
indi 12
ö@@ 12
– 11
muc@@ 11
oi 11
cia 11
ei 11
Quest@@ 11
pens@@ 11
ede 10
cose 10
tto 10
uno 10
capi@@ 10
posi@@ 10
della 10
osc@@ 10
fon@@ 10
— 10
uti 10
enza 9
á@@ 9
uro 9
é@@ 9
ggi@@ 8
avo 8
Il 8
allo 8
ante 8
aggi@@ 8
ù 7
cresc@@ 7
onale 7
ando 7
oni 7
tog@@ 7
j 7
merc@@ 7
zzo 7
lavor@@ 7
eri 7
amo 6
esto 6
etta 6
Le 6
ente 6
esi 6
amento 6
portun@@ 6
Tut@@ 6
mini 6
ó 6
dove 6
ü@@ 6
agli@@ 6
dollar@@ 5
( 5
eta 5
circa 5
Av@@ 5
tempo 5
dire 5
atta 5
oro 5
@ 5
essi 5
etti@@ 5
cres@@ 5
pes@@ 4
oso 4
anti 4
Cos@@ 4
Per 4
signi@@ 4
ñ@@ 4
olo 4
í@@ 4
= 4
impar@@ 4
ardi 4
Amer@@ 4
uto 4
è@@ 4
vi 4
ã@@ 4
persona 3
zzi 3
fond@@ 3
esse 3
ppo 3
qui 3
usa 3
parl@@ 3
ó@@ 3
alla 3
anza 3
chio 3
fica 3
vu@@ 3
anto 3
sti 3
ä@@ 3
aia 3
^ 3
Sono 3
vita 2
ù@@ 2
usto 2
esist@@ 2
â@@ 2
segu@@ 2
forma 2
ï@@ 2
avere 2
pi 2
lui 2
“ 2
” 2
certo 2
guard@@ 2
anzi@@ 2
credo 2
indivi@@ 2
sei 2
enti 2
* 2
É@@ 2
mento 2
semp@@ 2
anni 2
cio 2
svi@@ 2
prima 2
dov@@ 2
.000 1
risp@@ 1
ć 1
sap@@ 1
dei 1
anche 1
ú@@ 1
Una 1
Ho 1
bamb@@ 1
º@@ 1
˚ 1
igli@@ 1
… 1
alle 1
ò@@ 1
à@@ 1
sotto 1
ento 1
ê@@ 1
tre 1
rei 1
prat@@ 1
arlo 1
√ 1
± 1
enzi@@ 1
sul 1
rius@@ 1
anno 1
otten@@ 1
£ 1
ecc@@ 1
ā@@ 1
ç@@ 1
Ç@@ 1
arsi 1
cco 1
aggio 1
