, 105212
. 101110
di 56372
che 48428
e 44047
a 41628
la 29386
è 28800
i 28221
un 26398
il 24483
in 23860
are 20914
o 20700
per 18902
una 17419
s@@ 16961
ato 16668
le 16550
E 16136
" 15559
si 15536
non 15356
ri@@ 13373
i@@ 12798
l' 12443
in@@ 11761
t@@ 11736
da 11392
r@@ 10931
d@@ 10911
sono 10772
' 10709
e@@ 10598
to 10239
ar@@ 10224
ano 9813
o@@ 9765
m@@ 9681
del 9441
ale 9209
questo 9165
come 9135
: 9120
av@@ 9051
v@@ 9049
er@@ 9018
? 9013
se 8878
ma 8829
con 8812
di@@ 8716
ere 8693
S@@ 8629
lo 8524
mi 8464
più 8404
or@@ 8325
g@@ 8247
c@@ 8198
p@@ 8099
ci 7992
n@@ 7974
f@@ 7783
l@@ 7744
es@@ 7611
al@@ 7544
della 7477
pi@@ 7405
azione 7355
b@@ 7290
a@@ 7252
on@@ 7188
at@@ 7129
ità 7067
so 7064
ci@@ 7057
st@@ 6979
re@@ 6858
an@@ 6696
con@@ 6676
am@@ 6610
D@@ 6583
u@@ 6511
ate 6290
ha 6201
era 6096
si@@ 6087
en@@ 6079
ti 6074
al 6061
vi@@ 6040
it@@ 6024
mo 5931
ica 5873
C@@ 5868
io 5795
nel 5712
chi@@ 5692
as@@ 5645
li 5639
gli 5604
co@@ 5581
ta 5517
ando 5513
ati 5502
ico 5457
ore 5340
amente 5336
gi@@ 5211
P@@ 5172
cosa 5171
ata 5110
-- 5084
su@@ 5014
sc@@ 5003
vi 4982
par@@ 4941
molto 4933
ono 4927
li@@ 4887
Ma 4870
questa 4862
ho 4739
M@@ 4698
el@@ 4662
ol@@ 4654
te 4590
ic@@ 4581
dei 4578
sa 4565
ali 4489
re 4476
delle 4407
ter@@ 4404
ti@@ 4396
qu@@ 4324
per@@ 4318
N@@ 4263
so@@ 4254
do 4246
ap@@ 4234
B@@ 4225
po@@ 4206
ag@@ 4205
de@@ 4197
str@@ 4194
ai 4193
ac@@ 4170
amo 4167
enti 4166
alla 4151
anni 4148
abbiamo 4138
col@@ 4129
essere 4121
ero 4111
enza 4107
sol@@ 4080
cui 4071
pro@@ 4053
tr@@ 4046
ente 4033
Non 3978
loro 3953
A@@ 3911
ra 3891
va 3881
zione 3875
sp@@ 3864
fare 3864
anche 3810
ad@@ 3790
persone 3773
anno 3769
uno 3739
ne 3733
et@@ 3727
att@@ 3688
perché 3666
est@@ 3610
z@@ 3610
man@@ 3609
quando 3599
così 3596
ent@@ 3593
mi@@ 3588
tutto 3587
comp@@ 3569
me 3564
fi@@ 3552
ad 3532
La 3530
im@@ 3517
sta 3504
ett@@ 3452
se@@ 3442
mondo 3441
T@@ 3440
ura 3436
cor@@ 3435
dell' 3423
E@@ 3419
one 3419
ete 3391
ò 3372
pre@@ 3362
zz@@ 3356
solo 3332
hanno 3314
min@@ 3287
ici 3285
vol@@ 3256
Il 3244
de 3244
su 3237
cose 3230
lu@@ 3221
V@@ 3216
mo@@ 3197
tutti 3139
ro@@ 3120
modo 3119
ante 3114
po 3103
quello 3096
ec@@ 3072
inter@@ 3072
og@@ 3063
vo 3057
us@@ 3042
sione 3038
ut@@ 3036
ur@@ 3032
sia 3021
un' 3016
endo 3015
met@@ 3014
un@@ 2935
ino 2926
ori 2918
fatto 2909
c' 2891
anti 2886
for@@ 2875
ina 2863
os@@ 2839
ia 2837
Quindi 2836
ver@@ 2833
ciò 2800
O@@ 2799
ro 2785
cre@@ 2775
te@@ 2774
nella 2761
ed 2758
L@@ 2746
qui 2742
bi@@ 2734
F@@ 2715
siamo 2711
R@@ 2704
♫ 2695
mia 2682
ven@@ 2678
chi 2664
gu@@ 2661
ra@@ 2660
ora 2652
h@@ 2641
etto 2602
er 2596
oc@@ 2591
... 2589
no 2582
H@@ 2579
azioni 2572
do@@ 2571
ve 2567
gr@@ 2561
queste 2559
Questo 2553
pr@@ 2540
ce 2535
tu@@ 2534
à 2521
acc@@ 2518
imp@@ 2501
questi 2495
ric@@ 2478
parte 2458
almente 2449
esso 2445
pot@@ 2443
noi 2437
l 2432
dov@@ 2431
ed@@ 2424
stato 2424
G@@ 2391
oi 2391
mio 2378
all' 2377
and@@ 2373
vita 2360
prima 2352
due 2344
is@@ 2332
bile 2286
- 2283
ine 2276
ento 2272
ire 2246
fa 2230
Qu@@ 2218
1@@ 2212
ess@@ 2196
é 2182
ser@@ 2182
ist@@ 2179
ov@@ 2171
diver@@ 2161
ch@@ 2155
qualcosa 2149
ogni 2143
ita 2140
me@@ 2132
ul@@ 2125
gen@@ 2115
ati@@ 2102
pres@@ 2096
poi 2088
alle 2088
ev@@ 2079
no@@ 2074
der@@ 2071
uto 2069
co 2067
car@@ 2054
fin@@ 2053
-@@ 2047
ole 2041
fer@@ 2038
amento 2027
dire 2017
bu@@ 2008
altro 2004
le@@ 2004
dove 2003
I@@ 2000
può 1960
tempo 1955
em@@ 1946
migli@@ 1945
rit@@ 1941
fac@@ 1928
dal 1923
ava 1914
zi@@ 1914
mente 1903
A 1902
end@@ 1886
mostr@@ 1885
inizi@@ 1880
cont@@ 1877
evo 1877
tro@@ 1872
sul 1869
ot@@ 1863
iti 1842
In 1834
pa@@ 1833
vedere 1832
cambi@@ 1831
to@@ 1822
pen@@ 1815
azi@@ 1814
pri@@ 1807
chiam@@ 1806
ari 1803
port@@ 1799
ca 1794
davvero 1787
res@@ 1782
sap@@ 1766
sci@@ 1764
ite 1762
mai 1756
tra 1748
diamo 1748
cer@@ 1738
sulla 1736
ancora 1727
an 1724
ne@@ 1718
Se 1717
ni 1715
gente 1714
uc@@ 1697
zza 1697
meno 1696
oni 1693
dis@@ 1693
ito 1685
Ora 1683
degli 1668
atti@@ 1667
zzo 1659
unque 1656
ris@@ 1655
Al@@ 1654
aggio 1651
dic@@ 1641
far@@ 1641
zioni 1636
L' 1628
ini 1623
grande 1620
eg@@ 1613
sco@@ 1613
k@@ 1613
peri@@ 1610
pos@@ 1610
aff@@ 1607
u 1597
int@@ 1596
quella 1596
quel 1593
ab@@ 1590
ese 1586
pol@@ 1586
Questa 1585
ola 1585
can@@ 1584
trov@@ 1580
olo 1576
U@@ 1568
pens@@ 1567
esi 1567
gh@@ 1558
ene 1545
om@@ 1541
voi 1539
fr@@ 1534
iamo 1533
mor@@ 1533
cam@@ 1531
eri 1528
on 1514
il@@ 1510
au@@ 1509
cio 1508
eva 1507
etti@@ 1506
etti 1500
por@@ 1498
op@@ 1491
sor@@ 1483
com@@ 1479
go 1471
sempre 1466
dalla 1465
costru@@ 1464
gli@@ 1461
br@@ 1460
na 1455
divent@@ 1454
ani 1448
suo 1443
possiamo 1443
ici@@ 1439
nostro 1437
In@@ 1430
È 1421
volta 1419
quanto 1413
cu@@ 1413
dopo 1410
anza 1404
idea 1398
I 1394
sul@@ 1390
lo@@ 1383
contr@@ 1379
2@@ 1377
ie 1370
tipo 1370
ni@@ 1363
! 1355
sua 1353
pe@@ 1350
tras@@ 1345
W@@ 1344
lavoro 1344
K@@ 1341
pu@@ 1338
evano 1336
ve@@ 1334
lavor@@ 1333
tre 1332
fic@@ 1330
nostra 1327
d' 1326
sti 1324
altri 1322
detto 1320
punto 1315
succ@@ 1314
vel@@ 1313
Sono 1312
storia 1308
sal@@ 1304
dur@@ 1302
erano 1301
mer@@ 1300
Per 1300
quindi 1298
guar@@ 1298
Ho 1292
Perché 1290
ing@@ 1286
asi 1279
Si 1277
Ed 1275
endere 1274
TED 1272
id@@ 1270
vostr@@ 1269
t 1269
tutte 1267
qual@@ 1266
mat@@ 1265
gn@@ 1264
Ci 1259
comun@@ 1257
altra 1256
uti 1256
ì 1255
ff@@ 1252
avere 1247
bili 1235
nell' 1232
d 1228
ei 1225
mento 1221
cia 1220
ir@@ 1220
alizz@@ 1218
ten@@ 1217
esto 1217
soci@@ 1217
sar@@ 1216
all@@ 1216
senza 1214
guard@@ 1212
ario 1210
dere 1207
lin@@ 1205
fon@@ 1199
St@@ 1198
rac@@ 1196
uman@@ 1192
avo 1192
leg@@ 1191
s 1187
y@@ 1182
proprio 1178
circa 1178
ont@@ 1177
sti@@ 1176
Così 1173
giorno 1172
qualche 1171
mon@@ 1171
rei 1169
stesso 1168
ste 1168
h 1167
avano 1159
problema 1154
nei 1153
emente 1152
del@@ 1148
ren@@ 1148
bbero 1146
cent@@ 1144
picco@@ 1137
fat@@ 1137
sic@@ 1131
stata 1130
ca@@ 1130
colo 1128
Abbiamo 1125
sto 1114
cominci@@ 1110
fuori 1108
enzi@@ 1107
ant@@ 1106
ri 1102
bene 1099
oggi 1096
arriv@@ 1094
viv@@ 1094
fine 1093
Co@@ 1092
J@@ 1090
possono 1086
cerc@@ 1085
cin@@ 1081
ulti@@ 1079
posto 1079
5 1077
atto 1074
sistema 1074
gg@@ 1073
Come 1072
cap@@ 1069
funzion@@ 1069
Le 1068
raga@@ 1068
bisogno 1066
An@@ 1060
esse 1059
essi@@ 1059
pass@@ 1059
importante 1058
mett@@ 1054
esempio 1053
età 1049
dice 1048
molti 1046
form@@ 1039
nelle 1039
tt@@ 1036
ved@@ 1034
pi 1033
asp@@ 1032
ede 1026
Ecco 1025
y 1023
via 1020
senti@@ 1017
don@@ 1016
bambini 1013
altre 1011
igli@@ 1009
potre@@ 1008
k 1008
ssi@@ 1007
chio 1006
tor@@ 1004
parl@@ 1004
bel@@ 1003
immag@@ 1002
realtà 1002
zzi 1001
ig@@ 998
rebbe 998
zion@@ 998
mar@@ 997
lun@@ 996
aut@@ 996
atori 992
mu@@ 992
el 992
spi@@ 991
or 991
cono 989
nuovo 988
ment@@ 988
Quando 986
0 981
um@@ 978
ace 976
agli@@ 974
maggi@@ 972
Un 970
proc@@ 968
erra 968
ana 967
arsi 966
w@@ 964
aria 961
gioc@@ 961
pas@@ 959
visto 959
Mi 956
acqua 956
cel@@ 953
deci@@ 949
’ 947
vero 947
gono 947
momento 947
tel@@ 944
ai@@ 941
agli 941
volte 940
segu@@ 936
nostri 936
svilu@@ 936
ppo 933
bas@@ 932
gior@@ 931
dall' 931
dio 927
serv@@ 927
present@@ 926
potete 925
negli 924
cos@@ 921
ge 921
andare 921
prog@@ 919
; 919
viene 917
verso 914
credo 914
gia 913
stiamo 907
etro 907
tecnologia 905
ece 904
penso 904
pag@@ 903
Ch@@ 902
ta@@ 902
voglio 899
vic@@ 898
ness@@ 897
mag@@ 896
ali@@ 892
inv@@ 892
atore 891
cal@@ 890
ort@@ 890
lic@@ 889
Grazie 885
essi 885
evol@@ 885
and 884
ambi@@ 884
utt@@ 883
indi@@ 883
2 882
app@@ 881
des@@ 881
gener@@ 877
mili@@ 877
fond@@ 874
abbi@@ 873
fica 873
Pen@@ 872
milioni 872
lui 872
tanto 869
mal@@ 869
sioni 866
stanno 865
Quest@@ 860
bo@@ 860
inc@@ 859
alcuni 858
fosse 857
fino 856
pp@@ 855
quale 855
Per@@ 855
fu 855
sei 853
eff@@ 851
val@@ 851
parti@@ 850
dati 849
specie 849
aveva 848
pl@@ 848
rius@@ 847
prov@@ 845
uzione 844
sarebbe 842
ru@@ 842
parlare 841
differ@@ 840
mentre 838
grup@@ 834
num@@ 832
entr@@ 832
anim@@ 832
00 831
continu@@ 830
C' 830
ello 827
nuov@@ 827
macch@@ 826
aggiun@@ 823
go@@ 823
3@@ 820
oso 820
arti@@ 820
stu@@ 820
mas@@ 819
possibile 818
risp@@ 818
enti@@ 818
Una 814
inform@@ 814
mol@@ 813
libr@@ 813
du@@ 813
creare 809
pers@@ 808
ice 808
primo 808
onale 807
% 804
senso 803
avete 801
ù 799
casa 797
fam@@ 796
uti@@ 796
dollari 788
pensare 788
molte 787
già 786
19@@ 786
qualcuno 785
ona 783
allo 781
ini@@ 778
forse 775
quelle 774
vogli@@ 771
capire 770
8@@ 769
disc@@ 768
0@@ 768
farlo 765
insegn@@ 765
sost@@ 765
6@@ 763
enze 763
stri@@ 763
lì 762
10 762
5@@ 762
allora 761
inf@@ 761
Tut@@ 761
reg@@ 761
grandi 758
stessa 758
itu@@ 757
conosc@@ 757
rete 756
rap@@ 753
computer 752
insieme 751
test@@ 751
problemi 749
tto 749
pren@@ 746
nu@@ 746
sce 746
atter@@ 745
ricer@@ 742
ast@@ 742
za 740
aggi@@ 739
forma 739
impar@@ 739
usa 738
nel@@ 737
en 737
pes@@ 737
certo 735
bo 734
scu@@ 734
veramente 733
elle 733
Talk 732
città 731
dent@@ 731
energia 730
fu@@ 730
sapete 728
evamo 726
let@@ 724
Pot@@ 724
mus@@ 724
9@@ 723
stor@@ 722
fanno 721
miei 720
prat@@ 720
Lo 719
Un@@ 718
ma@@ 718
stati 716
uta 716
persona 716
arlo 715
adre 713
facendo 713
perf@@ 712
erò 711
posi@@ 711
ada 709
cervello 709
Subtitles 708
Transcript 708
sarà 708
usto 707
tutta 705
attraverso 705
stes@@ 704
abbastanza 701
lasci@@ 700
successo 699
capi@@ 699
50 697
not@@ 697
avuto 696
ga 696
ebbe 695
caso 695
Africa 693
ari@@ 692
ggi@@ 692
vu@@ 692
ran@@ 691
is 690
temp@@ 690
potrebbe 690
ove 689
possi@@ 688
conc@@ 687
ord@@ 686
erà 685
bb@@ 683
ette 683
meglio 682
disse 681
ragi@@ 681
mp@@ 680
model@@ 680
occu@@ 679
progetto 677
incredi@@ 677
domanda 677
dobbiamo 676
mbr@@ 675
esist@@ 673
tà 671
dai 670
univer@@ 670
remmo 669
Io 669
vor@@ 669
dire@@ 666
quali 666
perto 664
alcune 662
spazio 660
ardi 659
posta 659
atta 658
aia 657
diffici@@ 654
ane 654
.@@ 653
effetti 652
fel@@ 651
siano 651
.000 651
7@@ 648
20 647
lei 647
ber@@ 646
alc@@ 645
g 645
ob@@ 645
dato 645
propri@@ 645
Che 644
quattro 644
uro 644
abil@@ 643
Beh 643
ase 641
mano 640
4@@ 640
divi@@ 640
orno 638
oltre 638
gi 638
4 636
mini 636
8 635
stra 635
que 634
bilità 634
futuro 634
3 634
secondo 634
pubbl@@ 633
semplic@@ 633
bar@@ 632
edi@@ 631
complet@@ 628
piamo 627
sen@@ 627
segn@@ 627
icamente 623
riv@@ 622
anzi@@ 620
avamo 619
idee 619
piccolo 618
iti@@ 618
tri@@ 618
etta 618
dare 617
natur@@ 616
nostre 615
ori@@ 615
foto 614
grado 612
1 612
m 612
ere@@ 611
semplice 611
adesso 611
control@@ 609
probabil@@ 608
rel@@ 608
anz@@ 608
fl@@ 607
giu@@ 606
acci@@ 606
cost@@ 605
dir@@ 604
sotto 604
uomo 600
prodo@@ 600
Av@@ 600
ze 600
interessante 599
menti 598
fis@@ 597
legg@@ 596
otten@@ 595
arono 595
immagin@@ 592
oro 591
lav@@ 591
facciamo 591
ecc@@ 590
niente 590
prossi@@ 590
moti@@ 589
colare 589
Voglio 588
usare 588
amenti 588
arci 588
cresc@@ 588
quelli 587
pena 586
sch@@ 586
ben@@ 585
aiut@@ 583
vedete 583
vis@@ 582
merc@@ 582
perchè 581
pianeta 579
vo@@ 578
las@@ 578
ea 577
ass@@ 577
n 576
princi@@ 576
ute 574
sper@@ 574
6 573
far 572
semb@@ 572
pet@@ 571
cc@@ 571
ena 565
ella 565
program@@ 564
sult@@ 564
speci@@ 564
cul@@ 564
amp@@ 562
7 561
pun@@ 561
anti@@ 560
econ@@ 558
nat@@ 555
lar@@ 552
bamb@@ 552
amb@@ 550
secon@@ 544
colo@@ 542
dist@@ 542
oper@@ 541
ell@@ 539
be@@ 536
eri@@ 533
capac@@ 533
cri@@ 531
Gi@@ 531
organi@@ 530
state 528
signi@@ 527
ament@@ 527
dev@@ 526
pir@@ 525
abor@@ 521
ang@@ 521
dimen@@ 521
es 521
oni@@ 520
lan@@ 520
vir@@ 519
centr@@ 519
cas@@ 518
perim@@ 517
rec@@ 516
fan@@ 514
mb@@ 512
enor@@ 512
import@@ 511
vello 510
Gu@@ 509
dia 509
gno 507
den@@ 507
itt@@ 506
strum@@ 504
assi@@ 504
scal@@ 503
cir@@ 502
ar 500
ciamo 499
stru@@ 498
polit@@ 497
econo@@ 495
eria 494
Mar@@ 493
mil@@ 491
otog@@ 489
b 488
fre@@ 487
as 487
interess@@ 487
cli@@ 486
consider@@ 486
ordin@@ 486
glob@@ 485
dav@@ 485
est 484
fos@@ 484
design 483
uo@@ 482
ché 481
cr@@ 479
produ@@ 475
stud@@ 475
Pro@@ 473
compl@@ 472
am 471
pon@@ 468
Ri@@ 466
regi@@ 464
necess@@ 462
us 460
azie 460
India 460
defin@@ 459
son 458
pubb@@ 457
bre@@ 457
doman@@ 456
30 454
9 453
film 452
anto 449
materi@@ 447
dar@@ 445
indu@@ 445
ll@@ 444
tec@@ 440
osc@@ 440
Su@@ 439
fron@@ 438
Di@@ 435
plic@@ 434
rol@@ 434
perc@@ 434
ing 433
No 431
biol@@ 431
questi@@ 429
be 428
mis@@ 427
ade 427
intelli@@ 427
signific@@ 426
positi@@ 426
gover@@ 426
ban@@ 423
S 423
oce@@ 421
pover@@ 420
200@@ 420
quest@@ 420
tra@@ 419
100 415
gre@@ 410
studi@@ 410
ee 406
sur@@ 405
Par@@ 404
af@@ 404
net 403
media 402
diff@@ 402
archit@@ 401
abb@@ 401
qui@@ 401
Con@@ 400
x@@ 398
det@@ 397
r 396
ogli@@ 395
New 395
fil@@ 395
post@@ 394
p 394
ard 392
quel@@ 392
O 392
orig@@ 391
situ@@ 390
evi@@ 389
hi@@ 388
prof@@ 387
ef@@ 384
ay 383
lim@@ 383
fort@@ 383
Ar@@ 383
sta@@ 381
innov@@ 381
ture 380
pan@@ 380
c 379
tur@@ 376
movi@@ 376
part@@ 375
cres@@ 375
loc@@ 375
cat@@ 374
uro@@ 374
bri@@ 373
America 372
bil@@ 372
fe@@ 371
” 369
video 369
visi@@ 369
glio 368
off@@ 367
consu@@ 366
gro@@ 366
dol@@ 365
conv@@ 364
tut@@ 364
comb@@ 362
robo@@ 361
non@@ 358
Inter@@ 357
carb@@ 356
nor@@ 355
ile 354
Ne@@ 354
ge@@ 354
all 351
fun@@ 351
vari@@ 351
blo@@ 351
individu@@ 349
organ@@ 348
medi@@ 347
x 347
pic@@ 347
[ 347
] 347
sa@@ 346
vers@@ 346
cur@@ 344
000 344
invent@@ 344
invest@@ 341
15 339
cell@@ 339
uni@@ 337
pian@@ 337
inci@@ 335
coll@@ 334
ose 332
j@@ 330
sh@@ 330
into 330
sing@@ 329
biamo 328
net@@ 327
sue 327
Jo@@ 326
lev@@ 324
opportun@@ 323
“ 319
norm@@ 316
D 315
B 314
siste@@ 313
York 313
ner 311
biso@@ 310
ame 309
emp@@ 309
vent@@ 307
tto@@ 307
tecnolo@@ 307
dec@@ 307
40 306
icro@@ 304
ave 303
ou@@ 303
religi@@ 303
gran@@ 300
dig@@ 299
clas@@ 297
rem@@ 294
,@@ 294
acqu@@ 291
gan@@ 291
V 289
Z@@ 289
aver@@ 287
o-@@ 286
C 285
respon@@ 284
Oh 282
chè 279
sel@@ 277
ature 275
ative 274
th@@ 273
spe@@ 272
tiv@@ 271
sin@@ 269
man 268
educ@@ 267
Li@@ 267
agi@@ 263
men@@ 263
OK 262
consi@@ 258
Go@@ 257
Y@@ 257
gra@@ 255
mac@@ 253
esemp@@ 253
20@@ 253
ide@@ 253
area 249
matt@@ 249
we@@ 249
L 247
ros@@ 247
ey 246
ba@@ 244
– 243
eta 242
bl@@ 239
az@@ 238
gir@@ 236
z 232
et 230
line 230
Mo@@ 230
bor@@ 229
stre 228
fo@@ 226
lead@@ 221
ol 215
sign@@ 214
En@@ 209
attraver@@ 200
ste@@ 199
pe 198
nol@@ 197
ry 194
partic@@ 193
id 192
ak@@ 191
T 190
tw@@ 187
ok 186
pul@@ 185
G 184
la@@ 184
ill 183
desig@@ 183
ue 183
tal@@ 182
So@@ 179
ho@@ 178
sempl@@ 177
Th@@ 176
it 176
od 175
he@@ 172
sup@@ 172
fol@@ 172
star@@ 172
our 171
tit@@ 168
aw@@ 168
f 167
Gr@@ 167
ki@@ 167
tre@@ 165
ago 165
X@@ 164
citt@@ 164
anc@@ 164
vide@@ 164
ers 163
H 163
e-@@ 161
ity 160
lit@@ 158
ay@@ 158
at 157
stre@@ 157
up@@ 156
dise@@ 155
scri@@ 155
business 153
time 153
over@@ 153
dr@@ 153
spazi@@ 152
contin@@ 151
eng@@ 151
um 149
ke 142
ener@@ 142
ep@@ 141
bac@@ 141
nam@@ 140
Americ@@ 139
attr@@ 139
ong 139
data 138
M 137
TE@@ 137
inst@@ 136
bli@@ 134
comm@@ 132
age 132
sub@@ 131
X 130
muc@@ 129
case 129
fami@@ 128
energ@@ 127
/ 126
ex@@ 126
dro@@ 124
les 123
P 122
ly 122
.. 122
govern@@ 121
cuno 120
om 118
ation 116
ong@@ 116
sm@@ 115
care 115
v 114
of 114
W 112
R 110
cco 109
fe 109
ack 108
Be@@ 107
ure 107
get 104
ver 104
q 103
more 101
ow 99
ft 99
bro@@ 99
work 99
oglio 98
cora 98
K 97
ch 96
ational 96
ir 95
Cos@@ 95
ear@@ 95
duc@@ 94
mark@@ 93
F 93
ick 92
har@@ 92
fa@@ 92
real@@ 92
prob@@ 92
eme 91
eve 91
comput@@ 91
oun@@ 90
dy 90
So 89
ph@@ 89
st 89
kin@@ 88
ff 86
dollar@@ 86
land 86
auti@@ 86
lob@@ 85
The 85
ward 82
ance 81
plan@@ 81
our@@ 80
tive 79
by 79
top 78
ith 77
ess 77
der 77
low 76
produc@@ 76
Wh@@ 75
ter 74
aga@@ 74
w 73
ach@@ 73
incre@@ 72
N 72
ence 72
° 71
right 71
nov@@ 71
fir@@ 70
the 70
ea@@ 69
$ 69
altr@@ 68
fri@@ 68
ause 68
bra@@ 67
ei@@ 67
und 66
use 65
ans 65
th 65
fut@@ 65
ks 64
ld 63
insi@@ 63
Q@@ 63
sk@@ 62
the@@ 61
put 61
ouse 60
ling 59
,000 59
nolo@@ 58
ship 58
ú 58
Afr@@ 58
bus@@ 56
end 56
Earth 56
than 56
up 55
ick@@ 55
ent 55
wn 55
ant 54
U 54
war@@ 54
ell 53
set 53
arch@@ 53
king 52
ws 50
gh 50
cho@@ 50
& 49
don 49
ts 49
ds 49
ast 49
talk 49
ey@@ 48
semp@@ 47
ot 47
even 47
é@@ 47
á 46
ther 45
elli@@ 45
ates 44
… 44
op 44
my 43
Tran@@ 42
@ 42
ke@@ 42
ary 42
ms 42
« 42
» 42
show 42
well 41
sive 41
bit 41
ich 40
plac@@ 40
— 40
sure 39
trans@@ 39
ans@@ 39
J 39
fro@@ 39
also 39
create 39
proble@@ 38
dre@@ 38
ak 38
sy@@ 37
air 37
ach 36
ish 36
gs 36
wi@@ 35
É 35
ics 35
wat@@ 33
int 33
ut 33
Y 32
simp@@ 32
ic 32
attro 32
sion 32
wer 31
ness 31
ther@@ 30
ater 30
svi@@ 30
One 29
any 29
tion 29
over 29
tor 28
ones 28
book 28
ty 27
´ 27
ves 27
ain 27
bbe 27
ory 27
í 27
for 27
ber 27
sho@@ 26
wee@@ 26
ght 26
out@@ 26
any@@ 25
red 25
ó 25
ful@@ 25
rou@@ 25
way 24
ank 24
ll 24
back 23
Yor@@ 23
nec@@ 23
ep 23
ment 23
ps 22
q@@ 22
future 22
Z 21
wor@@ 21
chang@@ 21
è@@ 21
we 21
) 20
ons 20
ets 20
wan@@ 20
+ 20
low@@ 19
ins 19
bet@@ 19
à@@ 19
day 19
chil@@ 19
let 19
ement 19
ns 18
'@@ 18
jo@@ 18
ors 18
wer@@ 18
side 18
her 18
food 18
ject 17
ust 17
ical 17
* 17
he 17
indi 17
Q 17
air@@ 16
ou 16
old 16
ding 15
sic 15
face 15
ogy 15
fore 15
ree 15
shi@@ 15
iness 15
res 15
own 15
ect 15
ys 14
ould 14
see 14
wh@@ 14
ì@@ 14
how 14
sing 14
Now 13
out 13
ever 13
astanza 12
high@@ 12
etter 12
wr@@ 12
ning 12
My 12
ings 12
Amer@@ 12
hal@@ 12
char@@ 12
ound 11
able 11
look 11
chan@@ 11
hum@@ 11
ye@@ 11
coun@@ 11
ö@@ 11
off 10
lot 10
ble 10
= 10
clo@@ 10
stem 10
under@@ 10
done 10
ough 10
now 10
ally 10
onal 10
j 10
als 10
ò@@ 9
( 9
may@@ 9
tain 9
my@@ 9
life 9
ross 9
ving 9
ely 9
water 8
ous@@ 8
hap@@ 8
very 8
commun@@ 8
ces 8
alk 8
ready 8
act 8
tog@@ 8
loo@@ 8
# 8
here 8
ents 7
ful 7
hel@@ 7
ty@@ 7
its 7
space 7
she 7
made 7
down 7
ous 7
ular 7
lion 6
ations 6
Ear@@ 6
ities 6
ies 6
portun@@ 6
Sub@@ 6
try 6
ult 6
ition 6
aid 6
led 6
problem 6
ittle 6
live 6
imag@@ 6
kes 6
‘ 5
less 5
beg@@ 5
They 5
What 5
alcun@@ 5
script 5
² 5
ands 5
give 5
tech@@ 5
vie@@ 5
can 5
kind 5
ked 5
tions 4
reas@@ 4
lear@@ 4
ting 4
ó@@ 4
hop@@ 4
We 4
ven 4
ways 4
some 4
mes 4
ated 4
if 4
love 4
ited 4
read@@ 4
ü@@ 4
ñ@@ 4
¼ 3
call 3
point 3
memb@@ 3
away 3
room 3
self 3
ç@@ 3
cour@@ 3
story 3
` 3
ople 3
big 3
had 3
You 3
wing 3
ution 3
ying 3
ä@@ 3
This 3
possible 3
á@@ 3
ths 3
working 3
want 3
your 3
dren 3
It 3
♪ 3
½ 2
next 2
not 2
got 2
making 2
reli@@ 2
€ 2
part 2
ask 2
elec@@ 2
world 2
kno@@ 2
will 2
country 2
good 2
ically 2
science 2
ays 2
tty 2
person 2
four 2
him 2
ating 2
anything 2
û 2
ments 2
ú@@ 2
And 2
mic 2
that 2
you 2
indivi@@ 2
from 2
body 2
why 2
thou@@ 2
other 2
If 2
í@@ 2
change 2
feel 2
actu@@ 2
school 2
each 2
real 2
ween 2
new 2
bbiamo 2
building 2
ā@@ 2
play 2
light 2
etting 2
did 1
better 1
best 1
ems 1
left 1
about 1
How 1
`@@ 1
coming 1
human 1
™ 1
hav@@ 1
ù@@ 1
İ@@ 1
ses 1
his 1
nostr@@ 1
® 1
have 1
times 1
ž@@ 1
beli@@ 1
very@@ 1
ѐ 1
¥ 1
struc@@ 1
which 1
â@@ 1
ê@@ 1
ects 1
found 1
place 1
this 1
was 1
© 1
sense 1
ned 1
just 1
through 1
wom@@ 1
when 1
happ@@ 1
These 1
aying 1
with 1
information 1
xt 1
most 1
ś@@ 1
ć 1
buil@@ 1
ã@@ 1
read 1
˚ 1
£ 1
^ 1
É@@ 1
Ç@@ 1
went 1
ï@@ 1
call@@ 1
know 1
ample 1
power 1
brain 1
but 1
long 1
Here 1
experi@@ 1
kids 1
