, 121189
. 102535
the 78420
to 47805
of 45969
a 42259
and 40297
that 34690
I 32913
in 31460
is 27597
it 26140
you 26001
's 23061
we 20411
And 19352
this 16573
" 14416
on 13687
-- 13671
ed 13062
s 12673
was 11568
ing 11326
are 11278
es 11222
for 10619
have 10601
they 10028
an 9827
with 9212
at 9198
? 9182
can 8912
't 8831
what 8746
about 8683
be 8583
al 8476
So 8416
as 8243
all 8183
s@@ 8074
one 7739
y 7684
-@@ 7615
re@@ 7597
: 7462
or 7421
w@@ 7350
h@@ 7202
do 7187
there 7171
not 7106
b@@ 7078
in@@ 7020
e@@ 6630
It 6484
're 6480
er 6449
d@@ 6291
c@@ 6207
like 6144
t 6086
so 5975
from 5960
people 5953
ly 5911
f@@ 5825
st@@ 5811
my 5800
p@@ 5676
g@@ 5605
l@@ 5583
very 5541
y@@ 5413
t@@ 5373
me 5355
know 5305
out 5262
just 5232
The 5215
a@@ 5169
but 5123
o@@ 5088
up 4933
We 4925
ation 4913
But 4897
going 4891
our 4886
if 4757
these 4749
S@@ 4712
de@@ 4692
r@@ 4538
ar@@ 4456
them 4421
by 4413
un@@ 4411
i@@ 4369
here 4346
u@@ 4296
think 4295
n@@ 4277
th@@ 4272
which 4256
an@@ 4227
he 4223
on@@ 4220
because 4166
get 4156
m@@ 4145
see 4092
al@@ 4071
had 4044
ent 4027
ity 4017
li@@ 3941
ers 3940
d 3938
more 3927
really 3913
how 3905
when 3902
ac@@ 3868
M@@ 3819
us 3784
This 3780
've 3755
would 3710
You 3652
your 3632
'm 3625
k@@ 3616
k 3597
who 3589
way 3588
world 3588
er@@ 3587
en@@ 3538
then 3492
B@@ 3478
were 3443
time 3430
A@@ 3406
where 3401
D@@ 3385
don 3377
things 3373
has 3368
ate 3291
their 3291
ri@@ 3261
se@@ 3246
ts 3243
some 3241
sh@@ 3233
ro@@ 3228
or@@ 3197
ch@@ 3166
actually 3162
go 3161
into 3146
C@@ 3122
at@@ 3087
le@@ 3073
able 3070
years 3063
en 3063
ally 3057
le 3054
will 3037
v@@ 3033
lo@@ 3010
now 3006
it@@ 2992
m 2990
co@@ 2921
want 2865
ex@@ 2861
ar 2831
♫ 2826
ec@@ 2815
sp@@ 2810
other 2803
age 2788
di@@ 2787
con@@ 2777
n 2763
thing 2755
se 2754
T@@ 2738
make 2735
E@@ 2734
am@@ 2733
ad@@ 2694
said 2685
mo@@ 2667
el@@ 2660
could 2650
They 2650
been 2635
ds 2617
p 2613
H@@ 2600
si@@ 2589
Now 2584
P@@ 2574
as@@ 2565
right 2554
W@@ 2521
ic@@ 2521
got 2511
ag@@ 2508
O@@ 2500
tion 2487
N@@ 2463
e 2455
ice 2450
something 2448
little 2426
ks 2394
su@@ 2391
ap@@ 2391
ab@@ 2374
pro@@ 2360
ul@@ 2356
much 2344
ous 2303
ol@@ 2292
That 2286
to@@ 2279
say 2264
st 2263
work 2258
for@@ 2257
bo@@ 2242
than 2242
res@@ 2240
be@@ 2239
kind 2238
est 2235
two 2222
no 2202
first 2195
back 2190
h 2185
il@@ 2181
sion 2176
look 2170
ti@@ 2166
; 2149
me@@ 2122
those 2114
L@@ 2109
his 2085
over 2063
ical 2052
life 2042
R@@ 2031
mi@@ 2026
F@@ 2011
lot 1991
What 1989
also 1970
et@@ 1944
ght 1943
x@@ 1940
only 1938
th 1937
ma@@ 1921
l 1919
tr@@ 1917
im@@ 1901
es@@ 1891
j@@ 1886
ine 1877
J@@ 1869
ce 1868
'll 1868
There 1858
she 1853
per@@ 1849
come 1843
G@@ 1835
most 1832
down 1829
ur@@ 1826
ve 1805
ated 1803
did 1795
In 1793
ons 1766
take 1765
ter@@ 1758
around 1756
ent@@ 1752
its 1750
need 1747
so@@ 1746
do@@ 1745
ad 1745
many 1743
str@@ 1729
z@@ 1729
good 1729
new 1728
ents 1724
po@@ 1724
gi@@ 1714
ch 1706
ver@@ 1701
put 1692
day 1680
I@@ 1650
even 1645
1@@ 1641
c 1636
ment 1629
K@@ 1628
au@@ 1624
am 1606
doing 1591
ic 1584
end 1581
g 1580
different 1578
and@@ 1570
Well 1557
being 1552
de 1551
fi@@ 1551
ob@@ 1550
He 1535
through 1533
her 1527
ence 1525
king 1505
pl@@ 1504
same 1501
av@@ 1501
If 1499
o 1491
ting 1488
no@@ 1483
ary 1470
op@@ 1468
ant 1466
any 1466
ra@@ 1465
te@@ 1453
les 1452
every 1450
sol@@ 1444
use 1442
ations 1432
ating 1419
ne@@ 1409
vi@@ 1406
we@@ 1406
gh@@ 1403
fin@@ 1401
ph@@ 1393
w 1392
ou@@ 1379
old 1377
ect 1374
inter@@ 1374
par@@ 1372
min@@ 1370
called 1370
'd 1357
made 1356
ge 1342
car@@ 1339
ke 1337
three 1336
x 1326
our@@ 1325
pres@@ 1325
ess@@ 1322
ev@@ 1321
et 1321
pi@@ 1309
talk 1306
ble 1298
ning 1286
is@@ 1279
cre@@ 1271
ut@@ 1266
sc@@ 1259
em@@ 1256
year 1255
gro@@ 1251
well 1251
hi@@ 1248
ay 1247
ther 1243
why 1238
pre@@ 1235
A 1231
ite 1229
ted 1220
Ch@@ 1220
b 1213
gr@@ 1212
wor@@ 1207
human 1204
qu@@ 1202
ever 1202
change 1198
est@@ 1196
ely 1194
body 1194
idea 1194
percent 1193
ess 1193
TED 1184
ved 1183
great 1182
ed@@ 1166
big 1156
fact 1151
last 1150
ci@@ 1147
ho@@ 1143
pe@@ 1138
ance 1138
als 1131
tell 1131
ding 1131
ics 1131
ali@@ 1131
la@@ 1128
wh@@ 1126
went 1125
ked 1124
tu@@ 1124
didn 1121
another 1117
low 1116
ful 1114
find 1111
bit 1108
off 1105
ry 1104
ave 1102
red 1101
sort 1101
thought 1100
let 1097
used 1096
show 1092
started 1088
ities 1088
bu@@ 1086
ms 1081
place 1080
give 1080
ear@@ 1076
gre@@ 1074
course 1071
wing 1070
ago 1066
sur@@ 1061
the@@ 1061
per 1058
should 1053
own 1050
om@@ 1050
end@@ 1043
gen@@ 1042
important 1041
man@@ 1036
bi@@ 1034
ir@@ 1028
today 1026
cu@@ 1024
water 1021
' 1018
fe@@ 1011
ws 1011
after 1010
tri@@ 1009
all@@ 1008
ings 1006
mean 1004
ast@@ 1002
ies 1000
gu@@ 998
ze 998
2@@ 996
el 995
before 989
start 989
ot@@ 987
pr@@ 986
technology 982
better 979
pri@@ 977
does 976
sho@@ 974
problem 973
pa@@ 971
part 971
story 967
! 966
ans 966
dis@@ 965
him 965
ter 960
came 960
up@@ 960
V@@ 956
us@@ 954
never 954
next 952
ves 952
ition 944
whole 938
oc@@ 937
man 934
again 934
system 934
il 933
ins 932
mar@@ 929
ying 928
looking 928
sy@@ 928
fl@@ 926
ist@@ 914
ici@@ 914
bre@@ 913
iti@@ 913
lin@@ 912
might 910
point 906
long 905
still 905
led 902
ors 901
onal 899
Because 899
3@@ 898
zed 893
um 892
Th@@ 888
der 888
How 887
plan@@ 884
done 884
produc@@ 884
together 882
enti@@ 881
few 880
ling 880
ing@@ 877
mat@@ 877
comp@@ 875
any@@ 875
too 874
ei@@ 872
comes 872
love 870
design 869
id@@ 868
ell 868
mon@@ 868
ta@@ 868
imp@@ 866
ep@@ 860
r 859
each 854
go@@ 850
million 848
att@@ 848
ack 848
ned 846
When 844
f 843
between 839
less 838
act 838
real 838
tive 836
tions 836
doesn 835
fun@@ 835
ach 832
loc@@ 832
found 830
br@@ 829
re 825
question 825
clo@@ 823
form@@ 822
ands 820
mp@@ 820
rel@@ 819
ative 817
ort@@ 817
brain 817
fac@@ 816
try 816
sk@@ 815
ast 813
mil@@ 811
wanted 808
Thank 807
10 807
ru@@ 804
light 802
away 801
lu@@ 800
gener@@ 800
ard 797
’ 797
ai@@ 796
Y@@ 795
cor@@ 793
cent@@ 793
call 792
wi@@ 788
ig@@ 788
ets 785
children 785
OK 784
understand 784
Africa 779
ati@@ 779
star@@ 778
tra@@ 777
int@@ 776
tre@@ 776
uc@@ 774
ste@@ 771
always 771
ang@@ 770
ates 770
ore 769
fa@@ 768
four 766
person 766
coming 765
fo@@ 761
stuff 760
gs 759
pic@@ 758
ded 755
spe@@ 755
pe 754
he@@ 753
met@@ 753
Talk 752
working 752
chang@@ 752
19@@ 748
fri@@ 746
may 741
te 740
lear@@ 738
believe 737
using 736
trying 735
cur@@ 729
,000 729
air 727
exp@@ 725
sense 724
live 723
everything 721
sel@@ 721
pol@@ 720
kids 720
.@@ 718
trans@@ 718
building 718
space 716
money 714
Here 712
um@@ 712
thinking 710
Subtitles 708
Transcript 708
One 707
ational 707
acc@@ 706
ay@@ 706
ong 704
example 703
sub@@ 702
In@@ 700
line 700
5@@ 700
took 694
kno@@ 693
says 692
4@@ 691
ution 690
getting 687
col@@ 686
ell@@ 685
power 685
ps 685
eng@@ 684
cli@@ 683
side 682
quite 681
form 680
ces 680
energy 679
sing 679
exc@@ 677
making 676
enough 676
interesting 675
ef@@ 673
ari@@ 673
char@@ 672
dollars 671
dic@@ 671
des@@ 670
create 670
These 669
wn 668
ver 668
ones 668
com@@ 667
ot 667
e-@@ 667
feel 666
pp@@ 665
cho@@ 664
7@@ 664
ty@@ 661
So@@ 660
val@@ 660
ness 658
mor@@ 658
fr@@ 656
country 656
land 656
ically 655
ki@@ 655
rit@@ 654
ute 654
un 654
school 653
expl@@ 652
sure 647
cer@@ 646
ase 646
ement 645
happened 644
develop@@ 644
air@@ 643
five 643
rec@@ 642
data 642
od 641
high@@ 641
second 639
desig@@ 638
help 636
My 634
probably 634
An@@ 632
ca@@ 631
beg@@ 630
future 630
ue 629
der@@ 629
number 628
No 628
food 628
maybe 626
res 625
ia 623
possible 621
play 621
anything 620
evol@@ 620
talking 617
ems 617
20 617
ak 617
ain 616
ment@@ 616
top 616
lar@@ 616
ure 615
ty 614
mag@@ 614
small 613
spi@@ 613
har@@ 612
50 611
set 610
8@@ 610
pretty 606
ses 606
... 605
Earth 605
planet 604
means 603
She 602
ten@@ 602
left 601
read 601
ke@@ 601
ture 600
fol@@ 600
mic 599
science 598
lic@@ 598
id 598
times 598
move 595
book 594
ments 593
5 593
room 593
chi@@ 593
seen 593
ran@@ 591
ask 591
sta@@ 590
build 590
information 589
become 588
mis@@ 588
best 586
son 585
ideas 585
tur@@ 585
pen@@ 585
ey@@ 583
can@@ 582
ways 579
ner 579
econo@@ 579
bac@@ 579
sive 578
og@@ 576
ris@@ 575
0@@ 575
ult 575
war@@ 574
half 574
respon@@ 572
low@@ 571
bor@@ 571
coun@@ 571
und 571
ath 570
ful@@ 569
sup@@ 569
ls 567
tal@@ 566
simple 566
picture 566
happen 566
ously 565
serv@@ 564
ther@@ 562
ish 560
sed 559
pos@@ 559
tor 559
wee@@ 558
stud@@ 558
ward 558
6@@ 558
ill 557
ust 557
cap@@ 557
Why 557
coll@@ 556
else 556
dro@@ 556
goes 553
inst@@ 553
across 551
though 551
ge@@ 551
ory 550
wat@@ 549
without 548
bro@@ 547
phy@@ 546
ind 545
U@@ 544
off@@ 544
cam@@ 544
computer 542
oun@@ 540
i 540
ol 539
ving 538
makes 538
problems 537
bl@@ 537
having 537
St@@ 536
ism 536
ant@@ 536
head 534
art 533
every@@ 532
countries 532
cle@@ 531
Mar@@ 530
bad 529
Let 529
jo@@ 529
ital 528
S 525
ni@@ 525
saw 525
guy 524
such 523
works 522
Ri@@ 521
saying 520
struc@@ 520
ability 520
ship 520
ick 518
ists 518
dy 517
case 516
zation 514
reali@@ 514
mind 513
basically 512
human@@ 511
days 511
cr@@ 510
En@@ 510
disco@@ 509
God 508
told 507
chan@@ 507
eff@@ 506
dge 506
mach@@ 506
self 506
home 505
All 505
mas@@ 503
Li@@ 502
9@@ 501
happens 500
comm@@ 500
imag@@ 499
ft 499
bri@@ 498
part@@ 497
environ@@ 496
experience 496
aw@@ 495
living 495
looks 495
hel@@ 494
business 493
2 493
billion 493
ju@@ 492
car 492
nam@@ 491
India 491
Al@@ 491
ose 489
vol@@ 489
hy@@ 488
speci@@ 488
des 487
hard 487
ogy 487
ak@@ 486
care 486
Wh@@ 485
tech@@ 485
both 485
sci@@ 485
thers 484
universe 483
process 481
asked 481
ut 480
reason 479
moment 478
ape 478
later 477
anding 477
incredi@@ 476
New 474
ade 473
project 473
turn 473
women 473
face 473
history 473
ina 473
ba@@ 473
ols 472
hand 472
city 471
connec@@ 471
inc@@ 471
while 469
nature 469
ank 468
enc@@ 468
ace 468
anc@@ 468
ined 468
popul@@ 467
far 466
six 466
wa@@ 465
fe 464
bring 464
sen@@ 464
places 464
beautiful 464
ep 463
direc@@ 463
stic 463
social 463
nothing 461
den 460
inv@@ 460
For 459
As 458
sts 458
music 458
ey 457
everybody 457
ited 457
fu@@ 456
lead@@ 456
already 455
succ@@ 455
piece 454
lives 454
ately 453
mb@@ 453
af@@ 452
thous@@ 451
ach@@ 450
ven 450
within 450
child 449
den@@ 448
ters 448
almost 447
true 446
view 446
tly 446
high 446
du@@ 445
keep 445
hope 445
built 444
mark@@ 444
ends 444
ea@@ 443
del@@ 443
species 443
heard 442
teach@@ 441
ention 440
7 440
fic 440
comput@@ 440
0s 440
[ 439
] 439
yet 438
couple 437
jects 437
eg@@ 437
matter 437
looked 436
wal@@ 436
ator 435
answer 435
ric@@ 434
4 434
whether 432
ood 432
ences 432
single 431
organi@@ 431
ird 431
inside 431
global 430
tell@@ 430
net@@ 430
long@@ 430
gg@@ 430
tures 430
dr@@ 430
stu@@ 429
stre@@ 429
commun@@ 428
over@@ 428
order 427
100 427
under@@ 427
mother 427
sions 426
once 426
wr@@ 424
United 424
simp@@ 424
3 424
9 424
rou@@ 423
200@@ 423
tro@@ 422
house 422
itt@@ 421
ich 421
6 421
America 419
group 419
ering 419
men 419
ger 418
wer 418
learn 417
Then 416
aid 416
polit@@ 416
itself 416
family 415
os@@ 415
ns 414
gir@@ 414
under 413
somebody 412
Oh 410
ser@@ 409
deci@@ 409
oil 409
gets 409
u 409
ines 408
power@@ 407
ens 407
ese 407
ghts 406
ve@@ 406
30 406
ming 405
some@@ 405
must 405
wrong 404
iting 404
photograp@@ 404
stories 403
completely 402
ject 402
duc@@ 401
bly 401
months 401
mate 400
kinds 400
tw@@ 398
itu@@ 398
archit@@ 398
experim@@ 398
underst@@ 398
sli@@ 397
materi@@ 397
app@@ 397
tic 396
ree 396
sm@@ 396
company 396
interest@@ 396
ature 395
aff@@ 395
outh 395
remember 395
young 393
isn 393
fil@@ 393
ery 392
ori@@ 391
uses 391
ices 390
spec@@ 390
community 390
video 390
flo@@ 390
pul@@ 390
ected 389
happy 389
chall@@ 389
run 389
amazing 389
patter@@ 389
States 388
emp@@ 388
war 388
action 387
liter@@ 387
word 387
shar@@ 386
els 386
inste@@ 386
until 385
ept 385
rather 385
da 385
arti@@ 385
often 385
Mo@@ 384
loo@@ 384
animals 384
ages 384
sic@@ 384
public 383
imagine 382
taking 382
ail@@ 381
relati@@ 381
minutes 381
00 380
oper@@ 380
health 379
wasn 378
front 378
lots 378
fish 378
not@@ 378
ground 377
open 377
shi@@ 377
metimes 377
clas@@ 377
incre@@ 377
U.@@ 376
wonderful 376
ld 376
bir@@ 376
education 376
pur@@ 374
market 374
ole 374
large 374
figure 374
comple@@ 374
ourselves 373
dra@@ 373
om 373
myself 372
won 372
moti@@ 372
model 371
name 370
phone 370
ext@@ 369
pot@@ 369
size 369
game 369
eas@@ 368
structure 368
night 367
along 367
cat@@ 366
vely 366
partic@@ 366
happening 366
job 365
tain@@ 364
eri@@ 364
questions 364
wards 364
individu@@ 363
far@@ 363
mer 363
since 363
feet 363
V 362
level 362
hundre@@ 362
taken 362
opportun@@ 361
ys 361
sh 361
ched 361
put@@ 361
words 361
fre@@ 361
vo@@ 360
prof@@ 359
ouldn 359
cle 359
inf@@ 358
cogn@@ 358
shed 358
bigg@@ 357
appe@@ 357
exactly 357
ple@@ 357
anim@@ 357
8 356
state 356
che@@ 355
American 355
ently 355
moving 355
mol@@ 355
port 354
guys 354
ulti@@ 354
heart 354
decided 354
squ@@ 354
engine@@ 353
det@@ 352
igh@@ 352
real@@ 351
cont@@ 351
knew 350
couldn 350
ocean 350
ff@@ 349
stop 349
o-@@ 349
whatever 349
las@@ 349
uti@@ 348
amoun@@ 348
pas@@ 348
lions 348
organ@@ 348
cra@@ 348
hol@@ 348
turns 347
haps 347
area 347
ax@@ 347
huge 346
someone 346
Ar@@ 346
out@@ 346
dist@@ 346
temp@@ 345
ort 345
meas@@ 345
cir@@ 345
vari@@ 345
20@@ 344
rem@@ 343
hear 343
Re@@ 343
tel@@ 343
syst@@ 343
ules 343
f-@@ 342
particular 342
government 341
pu@@ 340
rac@@ 340
society 340
cul@@ 340
dri@@ 340
language 340
electr@@ 339
bil@@ 339
por@@ 339
ching 339
ples 339
vered 339
Yeah 338
ur 337
0,000 337
D 337
pati@@ 337
os 336
ordin@@ 336
hours 336
least 336
dre@@ 335
cost 334
Internet 334
became 334
created 334
read@@ 334
ok 333
woman 333
free 333
surface 333
vir@@ 333
dig@@ 332
ber@@ 332
fel@@ 331
seven 331
B 331
disease 331
worked 330
need@@ 330
d-@@ 330
diff@@ 330
stry 330
century 330
bar@@ 330
tt@@ 329
wed 329
cells 329
beginning 329
takes 328
tiv@@ 328
difference 327
ential 327
scale 327
bility 327
aut@@ 327
outside 327
natural 327
ere@@ 327
head@@ 327
medi@@ 326
news 326
fiel@@ 326
vers@@ 326
aying 326
beli@@ 326
dience 325
itting 325
behavi@@ 325
tors 324
row 324
boo@@ 324
run@@ 323
quick@@ 323
Wor@@ 322
control 322
int 322
10@@ 321
thre@@ 321
tor@@ 320
sa@@ 320
appro@@ 320
research 320
ye@@ 319
needs 318
play@@ 318
site 318
sign@@ 318
known 317
ren@@ 317
certain 317
themselves 316
shows 316
contin@@ 316
conc@@ 316
rap@@ 316
ered 315
zing 315
ects 315
past 315
cl@@ 315
medic@@ 315
ith 314
posed 314
present@@ 314
ames 314
driv@@ 313
alk 313
ner@@ 312
midd@@ 312
bel@@ 312
York 312
based 311
qual@@ 311
against 311
ga@@ 311
turned 310
Pe@@ 310
ick@@ 310
ners 310
list@@ 310
sor@@ 310
dom 310
seeing 310
1 309
cas@@ 309
fic@@ 309
grap@@ 309
scienti@@ 308
Co@@ 308
uni@@ 308
kil@@ 307
sw@@ 307
gone 307
tou@@ 306
reas@@ 305
invol@@ 304
ogi@@ 304
lim@@ 303
Z@@ 303
non@@ 302
entire 302
key 302
fer@@ 302
consu@@ 301
tec@@ 301
see@@ 301
gl@@ 299
15 298
blo@@ 298
lue 298
era 298
bur@@ 297
sue 297
perf@@ 297
dec@@ 297
ater 297
ous@@ 295
roc@@ 295
ton 294
ster 294
Gre@@ 293
Euro@@ 293
sec@@ 292
gli@@ 291
pose 290
canc@@ 290
culture 290
ah 289
iness 289
Sh@@ 288
aver@@ 288
ler 288
movi@@ 288
seri@@ 288
elec@@ 288
reg@@ 287
innov@@ 286
possi@@ 286
religi@@ 286
norm@@ 286
recor@@ 285
oni@@ 285
defin@@ 284
progr@@ 284
ee 284
ular 284
visi@@ 282
test 282
visu@@ 282
dar@@ 282
tot@@ 281
ben@@ 281
CA 281
tto@@ 279
film 279
40 278
ush 278
Ne@@ 278
my@@ 278
ker 278
cus 277
bal@@ 277
add@@ 276
open@@ 276
rai@@ 276
inclu@@ 275
proc@@ 275
Okay 275
dur@@ 274
ople 274
mess@@ 274
heal@@ 274
Ro@@ 274
mus@@ 274
Ma@@ 273
tain 273
fas@@ 273
ky 271
anti@@ 271
S. 270
Au@@ 270
stor@@ 270
ma 269
ire 268
ow 268
descri@@ 268
sic 267
cel@@ 265
trad@@ 265
port@@ 265
stri@@ 265
kes 265
Afric@@ 265
C 264
die 264
ide@@ 264
soci@@ 264
tran@@ 263
ale 262
gar@@ 262
Bo@@ 262
famili@@ 261
dev@@ 261
regi@@ 261
itive 261
year@@ 260
0 259
bas@@ 259
biol@@ 259
Is@@ 258
,@@ 258
ban@@ 256
vel@@ 256
situ@@ 256
sequ@@ 256
nolo@@ 255
num@@ 255
emer@@ 254
mul@@ 254
peri@@ 253
bb@@ 253
De@@ 252
team 252
z 252
cop@@ 251
vent@@ 251
mu@@ 251
equ@@ 251
dimen@@ 251
gal@@ 251
conv@@ 250
fur@@ 250
dol@@ 249
ney 249
pers@@ 248
trav@@ 248
Mi@@ 248
Bi@@ 248
carb@@ 247
T 247
sum@@ 246
fortun@@ 246
ash@@ 245
micro@@ 245
crit@@ 245
tic@@ 245
cro@@ 244
qui@@ 244
solut@@ 244
DNA 244
media 244
wer@@ 243
Be@@ 243
cour@@ 243
wan@@ 243
od@@ 243
ester@@ 242
positi@@ 242
invest@@ 242
fav@@ 242
Go@@ 242
la 241
Par@@ 240
op 240
Af@@ 239
ame 239
atu@@ 239
pan@@ 239
nucle@@ 239
Tw@@ 238
preci@@ 238
kin@@ 238
very@@ 238
mer@@ 237
essi@@ 237
ong@@ 237
happ@@ 237
gra@@ 236
anci@@ 236
invent@@ 235
indu@@ 234
amb@@ 234
Le@@ 233
Fran@@ 233
moder@@ 232
vie@@ 232
ero@@ 232
anal@@ 231
xt 231
ley 231
Con@@ 230
abor@@ 230
ass@@ 230
eting 230
hop@@ 230
buil@@ 228
leg@@ 228
Wi@@ 228
gan@@ 228
hav@@ 228
ber 227
mal@@ 227
demo@@ 226
vill@@ 226
produce 224
pt 224
que 224
compas@@ 224
late 223
ini@@ 223
ger@@ 223
comb@@ 222
ably 222
Pro@@ 220
ven@@ 219
ament@@ 219
continu@@ 218
colle@@ 218
25 217
cond@@ 216
let@@ 216
pend@@ 215
60 215
compet@@ 215
post@@ 214
grad@@ 214
ove 214
fine 213
199@@ 213
terri@@ 213
ths 212
fore 210
super@@ 210
spo@@ 210
scho@@ 210
sugg@@ 209
ete 209
rol@@ 209
Chris 208
az@@ 208
studi@@ 208
differ@@ 208
hear@@ 207
ans@@ 207
devel@@ 206
Joh@@ 205
viol@@ 205
arr@@ 204
Ho@@ 204
ll 204
mine 204
vic@@ 204
ov@@ 203
12 203
Si@@ 201
cri@@ 201
Car@@ 200
hun@@ 200
urb@@ 199
fam@@ 199
program@@ 199
ford 198
ra 198
bra@@ 198
oh 196
ir 195
nor@@ 195
test@@ 195
necess@@ 194
effici@@ 193
secon@@ 193
ause 192
Uni@@ 192
mes 192
P 192
Su@@ 192
plic@@ 191
ebr@@ 190
progres@@ 190
Ge@@ 190
Bu@@ 189
contr@@ 189
bus@@ 189
11 188
H 188
HI@@ 187
robo@@ 187
din@@ 186
pover@@ 186
univers@@ 186
equi@@ 186
ado@@ 185
ays 185
Ste@@ 185
evid@@ 185
ana 184
origin@@ 184
call@@ 184
model@@ 183
M 183
software 182
cos@@ 182
lan@@ 181
consi@@ 181
ho 181
Google 181
ont@@ 181
compar@@ 180
AI@@ 180
sti@@ 180
ene 180
zz@@ 179
500 179
ety 179
sia 179
80 179
memor@@ 178
ff 177
ane 177
suff@@ 177
ama 176
dia 176
ta 176
sal@@ 176
pass@@ 176
intro@@ 175
illu@@ 174
evi@@ 174
separ@@ 174
industri@@ 173
ould 173
Di@@ 172
gn@@ 172
enor@@ 172
200 172
robot 172
figu@@ 171
Un@@ 171
lun@@ 171
genet@@ 171
entu@@ 170
cal@@ 170
signific@@ 169
indo@@ 169
stat@@ 169
18 169
alc@@ 167
disp@@ 167
arch@@ 166
aci@@ 166
experi@@ 165
cost@@ 165
confer@@ 164
stati@@ 164
atmo@@ 164
actu@@ 164
civi@@ 164
ha 164
influ@@ 163
ai 163
David 162
mini@@ 162
govern@@ 162
Po@@ 162
ate@@ 161
gas 160
complic@@ 160
TE@@ 160
ready 159
/ 159
hu@@ 159
cin@@ 158
divers@@ 158
neur@@ 158
G 157
mmet@@ 157
For@@ 156
Ti@@ 156
publi@@ 156
olog@@ 156
lav@@ 156
dd@@ 156
sing@@ 155
Americ@@ 155
discus@@ 154
control@@ 154
distri@@ 154
priv@@ 153
Vi@@ 153
thin@@ 153
perc@@ 153
ouse 151
ken 151
creati@@ 151
import@@ 151
E 151
epi@@ 150
enom@@ 150
pon@@ 150
educ@@ 149
missi@@ 147
net 147
stem 147
vis@@ 146
virus 146
quar@@ 145
eve 145
nia 144
fanta@@ 144
ani@@ 144
aria 144
gh 144
pren@@ 143
intelli@@ 143
commerci@@ 143
inten@@ 143
pag@@ 142
ett@@ 141
biolog@@ 141
O 140
sco@@ 140
R 139
person@@ 138
asp@@ 138
men@@ 138
dio 138
bile 138
sch@@ 138
sens@@ 138
Per@@ 138
Secon@@ 137
vive 137
contri@@ 136
fir@@ 136
ough 136
Mon@@ 135
wonder@@ 135
integr@@ 135
Jo@@ 134
tra 134
F 134
divi@@ 134
atur@@ 134
riv@@ 133
of@@ 133
strum@@ 133
son@@ 133
Ad@@ 133
memb@@ 132
sion@@ 132
assi@@ 132
Nor@@ 132
Inter@@ 132
orig@@ 132
viv@@ 131
plac@@ 130
deter@@ 130
sul@@ 129
ami 129
con 129
oll@@ 129
throu@@ 128
conclu@@ 128
rad@@ 128
anz@@ 128
etting 127
lo 127
ero 127
centr@@ 127
fro@@ 127
ron@@ 127
conn@@ 126
dise@@ 125
ide 124
compl@@ 124
chil@@ 124
scal@@ 123
X@@ 123
capac@@ 122
pat@@ 122
elem@@ 122
cell@@ 121
won@@ 121
consider@@ 121
insi@@ 120
princip@@ 120
acci@@ 120
nut@@ 119
ros@@ 119
SA 118
eria 117
colo@@ 117
mani@@ 117
ll@@ 116
K 116
tempor@@ 115
concentr@@ 115
hist@@ 115
astr@@ 114
q 114
sent@@ 114
W 113
ica 113
lob@@ 113
intellig@@ 112
liber@@ 111
lion 111
econom@@ 110
zero 110
Qu@@ 110
attr@@ 109
pal@@ 109
etter 108
na 108
Gr@@ 108
'@@ 108
ours 108
stru@@ 108
ten 108
L 108
Gu@@ 107
abb@@ 107
don@@ 106
ury 106
ie 105
utt@@ 104
mac@@ 104
prepar@@ 104
hal@@ 104
reli@@ 104
libr@@ 104
Com@@ 103
rapi@@ 102
nu@@ 102
base 102
arriv@@ 102
member 102
pet@@ 101
thou@@ 101
vide@@ 100
hum@@ 98
oul@@ 98
rin@@ 98
ea 98
amp@@ 98
inci@@ 97
oce@@ 96
imes 96
ne 95
tit@@ 95
propri@@ 95
impres@@ 94
stra@@ 93
hap@@ 93
kay 93
azi@@ 93
corr@@ 92
batter@@ 92
serve 91
semb@@ 91
dent@@ 91
scar@@ 90
afr@@ 90
uro@@ 90
ener@@ 89
hi 89
nel 89
$ 88
glob@@ 88
Pri@@ 88
princi@@ 87
capit@@ 86
Al 85
was@@ 85
abil@@ 84
utes 84
fort@@ 84
osp@@ 84
fos@@ 83
langu@@ 83
nel@@ 83
natur@@ 83
emo@@ 82
Gi@@ 82
prote@@ 82
resear@@ 82
ena 81
di 81
li 81
ada 80
mo 79
pir@@ 78
ba 76
N 76
icro@@ 75
elet@@ 75
zone 75
youn@@ 75
auti@@ 75
gest@@ 74
ola 74
sco 74
Come 73
technol@@ 72
occu@@ 72
X 72
appar@@ 72
ross 72
nov@@ 72
accor@@ 71
Pi@@ 70
male 70
ste 70
ico 70
guar@@ 70
scri@@ 69
ile 69
pia 69
ard@@ 68
gran@@ 68
ro 66
Lu@@ 66
000 65
ani 64
dir@@ 64
err@@ 64
auto@@ 63
san@@ 63
inning 63
io 62
indi@@ 62
nec@@ 62
ere 60
acqu@@ 59
prov@@ 59
studio 59
fal@@ 59
sa 59
iti 58
fron@@ 58
due 58
ine@@ 58
v 58
parti@@ 57
ambi@@ 57
inform@@ 57
via 57
fat@@ 57
diver@@ 56
ann@@ 56
ness@@ 56
bo 56
ound 55
mapp@@ 55
cc@@ 54
probabil@@ 54
sin@@ 53
agi@@ 53
sar@@ 53
tras@@ 53
arri@@ 52
piano 52
- 51
rov@@ 51
ample 51
pun@@ 51
che 51
Cre@@ 51
igh 51
veni@@ 50
ita 50
lit@@ 50
ello 50
ato 50
ini 50
Pen@@ 50
edi@@ 50
uman@@ 50
Ear@@ 49
ri 49
vere 48
ette 48
contro@@ 48
scor@@ 48
ssi@@ 48
tries 47
fare 46
zi@@ 46
Q@@ 46
occup@@ 46
sper@@ 46
& 45
atter@@ 45
ether 44
pure 44
fan@@ 44
J 44
ata 44
disc@@ 43
gover@@ 43
La 43
ora 42
U 42
tas@@ 42
what@@ 42
Pu@@ 42
q@@ 40
tag@@ 40
Mol@@ 40
za 39
va 39
si 38
prefer@@ 38
nol@@ 38
entr@@ 38
simi@@ 38
diverse 37
ali 37
complet@@ 36
etti 36
ario 36
sb@@ 36
ura 35
co 35
questi@@ 34
ino 34
beauti@@ 34
with@@ 34
may@@ 34
dren 34
amaz@@ 34
ona 34
ca 33
ittle 33
vor@@ 33
mbr@@ 33
quel@@ 33
mi 33
Y 32
gi 32
tta 32
schi@@ 32
ano 31
quest@@ 30
ou 30
fut@@ 30
bli@@ 30
Q 29
nat@@ 28
rend@@ 28
Yor@@ 28
erra 28
desi@@ 28
proble@@ 28
Ci@@ 28
tut@@ 28
quant@@ 28
All@@ 27
Tran@@ 27
nuc@@ 27
ati 27
energ@@ 26
eme 26
mia 26
til 25
bet@@ 25
Z 25
viron@@ 25
tty 25
Cer@@ 24
ci 24
lingu@@ 24
ito 24
titles 24
sof@@ 23
sta 23
ono 23
ori 23
ari 23
ogg@@ 23
sult@@ 23
zza 23
una 23
pa 23
elli@@ 22
scu@@ 22
altr@@ 22
ord@@ 22
del 21
vo 21
aver 21
é 20
NA 20
+ 20
amer@@ 20
gie 20
Dav@@ 19
sfi@@ 19
solo 19
ni 19
chi 19
ga 19
aga@@ 19
% 19
plor@@ 19
senti@@ 18
atten@@ 18
dice 18
mili@@ 18
dal 18
univer@@ 18
atti@@ 18
Sub@@ 18
quad@@ 18
fu 18
coli 18
dare 17
lev@@ 17
perim@@ 17
non 17
otograp@@ 17
veloc@@ 17
lei 17
mare 17
ella 17
script 17
emat@@ 17
Ok 16
bec@@ 16
ece 16
endo 16
) 16
gia 16
behav@@ 16
prob@@ 16
ava 15
Ed 15
stare 15
petrol@@ 15
eva 15
elle 15
vec@@ 15
elli 15
commer@@ 14
ween 14
azz@@ 14
po 14
Pot@@ 14
ond@@ 14
pian@@ 14
col 14
rete 14
esn 14
actly 14
Ma 13
ti 13
sf@@ 13
quel 13
legg@@ 13
colleg@@ 12
etto 12
fa 12
# 12
sop@@ 12
indi 12
ö@@ 12
– 11
sole 11
muc@@ 11
oi 11
cellu@@ 11
cia 11
salv@@ 11
ei 11
Quest@@ 11
Goog@@ 11
pens@@ 11
elo 10
coup@@ 10
ede 10
cose 10
tto 10
uno 10
capi@@ 10
posi@@ 10
econ@@ 10
della 10
osc@@ 10
fon@@ 10
— 10
uti 10
eno 9
aro 9
Pos@@ 9
enza 9
á@@ 9
uro 9
Da 9
oria 9
fis@@ 9
é@@ 9
fia 8
ggi@@ 8
avo 8
alb@@ 8
Il 8
zi 8
auto 8
allo 8
ante 8
selves 8
tu 8
aggi@@ 8
ù 7
esa 7
cresc@@ 7
onale 7
ando 7
oni 7
tog@@ 7
j 7
merc@@ 7
zzo 7
utto@@ 7
lavor@@ 7
eri 7
amo 6
esto 6
etta 6
Le 6
ente 6
esi 6
amento 6
portun@@ 6
Tut@@ 6
letter@@ 6
mini 6
ó 6
dove 6
ü@@ 6
agli@@ 6
tegr@@ 5
tware 5
superfici@@ 5
dollar@@ 5
( 5
eta 5
circa 5
wom@@ 5
osa 5
ris 5
Av@@ 5
tempo 5
acco 5
dire 5
ulla 5
atta 5
inst 5
them@@ 5
oro 5
@ 5
essi 5
Ha 5
etti@@ 5
cres@@ 5
asse 4
nas@@ 4
pes@@ 4
pensi@@ 4
oso 4
anti 4
Cos@@ 4
Per 4
signi@@ 4
ñ@@ 4
olo 4
í@@ 4
= 4
impar@@ 4
ardi 4
Amer@@ 4
uto 4
superf@@ 4
è@@ 4
vi 4
ã@@ 4
hai 4
eah 4
persona 3
zzi 3
fond@@ 3
esse 3
ppo 3
ista 3
nem@@ 3
qui 3
usa 3
mie 3
parl@@ 3
ó@@ 3
alla 3
anza 3
Sap@@ 3
lato 3
colt@@ 3
chio 3
fica 3
vu@@ 3
avi 3
amma 3
mani 3
anto 3
sti 3
atura 3
ä@@ 3
torn@@ 3
aia 3
^ 3
glia 3
Sono 3
sopr@@ 3
vita 2
ù@@ 2
usto 2
esist@@ 2
â@@ 2
ammo 2
som@@ 2
strada 2
segu@@ 2
forma 2
ï@@ 2
avere 2
pie@@ 2
pi 2
lui 2
vista 2
“ 2
” 2
certo 2
guard@@ 2
anzi@@ 2
credo 2
indivi@@ 2
sei 2
esta 2
enti 2
* 2
happen@@ 2
É@@ 2
mento 2
semp@@ 2
anni 2
cio 2
svi@@ 2
zo 2
prima 2
dov@@ 2
atti 2
evi 2
ries@@ 2
.000 1
risp@@ 1
ć 1
terra 1
oli 1
iche 1
globale 1
sap@@ 1
dei 1
anche 1
ú@@ 1
Una 1
Ho 1
bamb@@ 1
strut@@ 1
ricor@@ 1
otti@@ 1
º@@ 1
˚ 1
igli@@ 1
sui 1
… 1
alle 1
osi 1
emo 1
odo 1
ò@@ 1
à@@ 1
sotto 1
ento 1
ê@@ 1
tre 1
rei 1
prat@@ 1
arlo 1
√ 1
± 1
enzi@@ 1
sul 1
rius@@ 1
anno 1
otten@@ 1
£ 1
ecc@@ 1
ā@@ 1
ç@@ 1
Ç@@ 1
donna 1
arsi 1
itare 1
musica 1
cco 1
americ@@ 1
aggio 1
