, 105212
. 101067
di 55309
che 47978
e 41263
a 32638
è 28477
la 27822
un 26398
il 24481
in 23860
i 21477
per 18902
una 17419
are 16335
E 16136
" 15559
non 15356
le 15303
si 14269
o 13511
ato 12847
l' 11559
da 11030
sono 10772
s@@ 10556
' 9979
ri@@ 9878
in@@ 9500
del 9439
questo 9165
come 9135
: 9120
? 9013
con 8812
ma 8513
ano 8447
più 8404
ale 8115
t@@ 7995
ci 7992
to 7963
se 7899
mi 7588
i@@ 7564
della 7477
di@@ 7373
azione 7355
lo 7182
d@@ 7125
c@@ 7093
e@@ 6615
r@@ 6387
S@@ 6226
ha 6201
er@@ 6149
ate 6148
era 6096
v@@ 6055
al 5998
nel 5712
or@@ 5693
gli 5604
ere 5537
ica 5486
st@@ 5462
av@@ 5432
es@@ 5423
f@@ 5377
ar@@ 5286
p@@ 5260
l@@ 5258
cosa 5171
ata 5110
ando 5107
-- 5084
ati 5064
ci@@ 4990
al@@ 4971
an@@ 4964
molto 4933
o@@ 4895
m@@ 4874
Ma 4870
questa 4862
it@@ 4820
g@@ 4768
D@@ 4745
ho 4739
b@@ 4736
a@@ 4734
on@@ 4731
u@@ 4666
dei 4578
ta 4554
ore 4523
n@@ 4511
am@@ 4438
vi 4432
re@@ 4427
co@@ 4416
delle 4407
so 4406
ità 4295
ono 4285
at@@ 4226
io 4188
si@@ 4172
alla 4151
anni 4148
abbiamo 4138
essere 4121
ti 4115
cui 4071
ali 4037
ico 4015
Non 3978
chi@@ 3963
per@@ 3954
loro 3953
en@@ 3920
con@@ 3908
C@@ 3873
fare 3864
enti 3845
te 3825
anche 3810
persone 3773
ai 3757
as@@ 3704
ente 3687
pro@@ 3679
perché 3666
quando 3599
così 3596
tutto 3587
mo 3575
li 3556
M@@ 3542
La 3530
ad 3520
re 3502
zione 3464
anno 3448
mondo 3441
dell' 3423
pi@@ 3413
li@@ 3388
solo 3332
hanno 3314
amente 3306
ici 3285
ne 3278
uno 3267
do 3266
N@@ 3244
Il 3244
su 3237
cose 3230
ic@@ 3204
tutti 3139
modo 3119
va 3117
quello 3096
ent@@ 3080
vi@@ 3065
ag@@ 3049
ti@@ 3047
im@@ 3046
sione 3038
ò 3036
ol@@ 3028
sia 3021
B@@ 3020
un' 3016
endo 3015
col@@ 3015
sta 2939
P@@ 2916
fatto 2909
A@@ 2907
c' 2891
enza 2850
Quindi 2836
ver@@ 2833
fi@@ 2807
ter@@ 2807
us@@ 2805
ciò 2800
nella 2761
ed 2753
ap@@ 2752
T@@ 2744
qui 2742
par@@ 2735
et@@ 2732
de 2715
su@@ 2697
E@@ 2696
♫ 2695
vol@@ 2690
un@@ 2684
sp@@ 2659
ett@@ 2657
ante 2653
inter@@ 2653
bi@@ 2632
de@@ 2627
ac@@ 2621
etto 2602
sc@@ 2602
pre@@ 2596
... 2589
po@@ 2574
queste 2559
Questo 2553
so@@ 2552
el@@ 2548
att@@ 2522
questi 2495
mi@@ 2492
me 2486
ad@@ 2482
sa 2478
anti 2463
V@@ 2458
parte 2458
almente 2449
noi 2437
ori 2429
stato 2424
ero 2419
gi@@ 2406
mio 2378
all' 2377
siamo 2374
and@@ 2368
O@@ 2362
mia 2362
vita 2360
one 2356
est@@ 2355
ina 2354
prima 2352
due 2344
ro@@ 2298
R@@ 2289
- 2283
chi 2265
amo 2256
ete 2256
L@@ 2248
do@@ 2235
cre@@ 2233
fa 2230
azioni 2228
sol@@ 2226
imp@@ 2224
tr@@ 2203
se@@ 2200
str@@ 2197
é 2182
ora 2177
ino 2170
no 2163
z@@ 2153
qualcosa 2149
ogni 2143
ita 2140
F@@ 2100
poi 2088
for@@ 2059
car@@ 2054
fin@@ 2053
-@@ 2029
dire 2017
ia 2013
te@@ 2011
qu@@ 2009
man@@ 2005
altro 2004
dove 2003
ra 2001
zz@@ 1993
può 1960
tempo 1955
ch@@ 1951
dal 1923
min@@ 1907
mo@@ 1896
ce 1893
ento 1884
H@@ 1882
sul 1869
vo 1859
ra@@ 1859
ven@@ 1836
In 1834
vedere 1832
ari 1803
gr@@ 1788
davvero 1787
ur@@ 1778
dov@@ 1777
ine 1773
oc@@ 1768
ite 1758
mai 1756
l 1749
tra 1748
cer@@ 1738
sulla 1736
uto 1728
ancora 1727
pres@@ 1725
ire 1718
gu@@ 1717
Se 1717
gente 1714
an 1705
zza 1697
meno 1696
oni 1693
ito 1685
Ora 1683
po 1683
cor@@ 1681
acc@@ 1675
dis@@ 1673
degli 1668
bu@@ 1664
unque 1656
no@@ 1655
pot@@ 1654
aggio 1651
amento 1645
far@@ 1641
zioni 1636
L' 1628
ut@@ 1623
grande 1620
G@@ 1615
aff@@ 1607
quella 1596
quel 1593
ab@@ 1590
ess@@ 1586
Questa 1585
ura 1577
olo 1576
à 1570
ec@@ 1566
voi 1539
alle 1535
ava 1535
eri 1528
der@@ 1523
eva 1507
etti 1500
ve 1500
I@@ 1497
gen@@ 1495
met@@ 1485
sor@@ 1483
tu@@ 1477
sempre 1466
dalla 1465
mostr@@ 1458
ot@@ 1454
fer@@ 1451
ed@@ 1450
ani 1448
suo 1443
possiamo 1443
nostro 1437
In@@ 1430
mente 1429
ist@@ 1425
ul@@ 1425
op@@ 1424
ro 1424
1@@ 1422
È 1421
volta 1419
quanto 1413
dopo 1410
anza 1404
iti 1402
idea 1398
is@@ 1397
comp@@ 1395
I 1394
cu@@ 1376
mor@@ 1371
lo@@ 1370
tipo 1370
! 1355
sua 1353
bile 1352
lavoro 1344
can@@ 1342
K@@ 1341
Qu@@ 1334
tre 1332
nostra 1327
d' 1326
altri 1322
detto 1320
os@@ 1316
pe@@ 1316
punto 1315
Sono 1312
ca 1311
storia 1308
evo 1304
og@@ 1304
k@@ 1304
erano 1301
Per 1300
quindi 1298
res@@ 1297
er 1294
Ho 1292
Perché 1290
ing@@ 1286
rit@@ 1284
pri@@ 1278
Si 1277
Ed 1275
TED 1272
id@@ 1270
diamo 1269
tutte 1267
mat@@ 1265
Ci 1259
cont@@ 1259
on 1256
altra 1256
atti@@ 1256
ini 1253
avere 1247
fr@@ 1247
br@@ 1238
bili 1235
nell' 1232
fac@@ 1225
mento 1221
ris@@ 1220
ten@@ 1217
all@@ 1216
ir@@ 1215
senza 1214
pen@@ 1211
com@@ 1210
ario 1210
dere 1207
le@@ 1194
avo 1192
me@@ 1191
au@@ 1186
U@@ 1184
proprio 1178
circa 1178
ese 1177
sti@@ 1175
Così 1173
giorno 1172
qualche 1171
mon@@ 1171
stesso 1168
ste 1168
y@@ 1168
avano 1159
problema 1154
gli@@ 1154
nei 1153
il@@ 1149
ren@@ 1148
h@@ 1147
ne@@ 1144
Al@@ 1134
iamo 1131
pr@@ 1130
stata 1130
Abbiamo 1125
migli@@ 1118
dic@@ 1114
pens@@ 1114
fuori 1108
divent@@ 1104
eg@@ 1101
bene 1099
oggi 1096
zzo 1096
A 1093
fine 1093
J@@ 1090
na 1090
possono 1086
ov@@ 1082
posto 1079
atto 1074
sistema 1074
d 1073
Come 1072
port@@ 1072
ric@@ 1071
pol@@ 1071
co 1069
W@@ 1068
Le 1068
bisogno 1066
An@@ 1060
esse 1059
essi@@ 1059
importante 1058
em@@ 1057
tro@@ 1056
esempio 1053
dice 1048
molti 1046
ene 1044
por@@ 1039
nelle 1039
tt@@ 1036
ved@@ 1034
chiam@@ 1031
Ecco 1025
via 1020
esso 1020
inizi@@ 1019
ev@@ 1013
bambini 1013
ser@@ 1011
altre 1011
to@@ 1011
potre@@ 1008
chio 1006
sal@@ 1006
parl@@ 1004
uc@@ 1004
bel@@ 1003
realtà 1002
zion@@ 998
mar@@ 997
atori 992
nuovo 988
ment@@ 988
Quando 986
ni@@ 986
etti@@ 978
ig@@ 976
Un 970
ana 967
arsi 966
aria 961
pas@@ 959
visto 959
2@@ 958
Mi 956
tras@@ 956
acqua 956
fic@@ 955
deci@@ 949
’ 947
vero 947
momento 947
end@@ 945
cambi@@ 944
tel@@ 944
agli 941
volte 940
segu@@ 936
nostri 936
costru@@ 936
bas@@ 932
dall' 931
potete 925
negli 924
andare 921
; 919
viene 917
verso 914
credo 914
sti 910
lavor@@ 909
stiamo 907
tecnologia 905
penso 904
pag@@ 903
ici@@ 901
voglio 899
mag@@ 896
ai@@ 896
cia 896
sar@@ 895
go 894
ole 892
atore 891
cal@@ 890
vel@@ 889
int@@ 887
Grazie 885
essi 885
evol@@ 885
gg@@ 885
oi 882
and 881
sap@@ 878
gener@@ 877
milioni 872
lui 872
tanto 869
evano 869
ont@@ 868
guard@@ 867
sioni 866
stanno 865
sco@@ 864
zi@@ 863
ge 861
ali@@ 860
bo@@ 859
alcuni 858
fosse 857
fino 856
ve@@ 855
quale 855
Per@@ 855
fu 855
sei 853
5 852
uti 852
val@@ 851
t 850
dati 849
specie 849
aveva 848
qual@@ 847
u 846
prov@@ 845
leg@@ 844
uzione 844
sarebbe 842
gh@@ 842
ru@@ 842
parlare 841
s 840
cam@@ 839
mentre 838
entr@@ 832
continu@@ 830
C' 830
go@@ 823
3@@ 820
ssi@@ 820
oso 820
arti@@ 820
mas@@ 819
possibile 818
Una 814
mol@@ 813
du@@ 813
sic@@ 812
creare 809
colo 808
ice 808
primo 808
% 804
senso 803
avete 801
ù 799
h 799
w@@ 798
casa 797
enzi@@ 792
ff@@ 789
dollari 788
pensare 788
molte 787
già 786
ant@@ 785
rei 785
qualcuno 785
ola 785
cominci@@ 781
allo 781
rac@@ 780
forse 775
ei 775
quelle 774
capire 770
farlo 765
insegn@@ 765
guar@@ 765
ca@@ 763
sci@@ 763
enze 763
lì 762
10 762
allora 761
reg@@ 761
arriv@@ 760
cap@@ 759
grandi 758
stessa 758
itu@@ 757
esi 757
conosc@@ 757
rete 756
St@@ 756
computer 752
insieme 751
problemi 749
cent@@ 747
pren@@ 746
sce 746
ati@@ 742
om@@ 742
ast@@ 742
lin@@ 741
aggi@@ 739
forma 739
impar@@ 739
pes@@ 737
certo 735
veramente 733
elle 733
Talk 732
città 731
energia 730
cio 730
fu@@ 730
aut@@ 730
sapete 728
evamo 726
fon@@ 725
fanno 721
miei 720
prat@@ 720
Lo 719
inc@@ 718
stati 716
uta 716
persona 716
arlo 715
azi@@ 714
facendo 713
soci@@ 712
erò 711
cervello 709
Subtitles 708
Transcript 708
sarà 708
tutta 705
endere 705
attraverso 705
ma@@ 705
abbastanza 701
lasci@@ 700
del@@ 700
successo 699
alizz@@ 699
capi@@ 699
peri@@ 699
50 697
not@@ 697
avuto 696
ga 696
caso 695
Africa 693
ari@@ 692
ggi@@ 692
potrebbe 690
gn@@ 689
erà 685
pi 684
bb@@ 683
pass@@ 683
ette 683
meglio 682
disse 681
mp@@ 680
bbero 680
trov@@ 677
progetto 677
domanda 677
mu@@ 677
dobbiamo 676
Ch@@ 674
esist@@ 673
2 672
lu@@ 672
tà 671
dai 670
remmo 669
y 669
Io 669
en 667
dire@@ 666
dio 666
quali 666
funzion@@ 664
alcune 662
spazio 660
k 655
ane 654
ni 653
effetti 652
fel@@ 651
siano 651
.000 651
eff@@ 650
form@@ 650
ulti@@ 649
7@@ 648
20 647
lei 647
senti@@ 646
alc@@ 645
g 645
ob@@ 645
dato 645
propri@@ 645
Che 644
quattro 644
uro 644
Beh 643
mer@@ 642
mano 640
4@@ 640
.@@ 639
oltre 638
agli@@ 636
4 636
stra 635
futuro 634
3 634
secondo 634
viv@@ 633
bar@@ 632
diver@@ 628
segn@@ 627
cono 626
emente 626
icamente 623
anzi@@ 620
avamo 619
idee 619
raga@@ 619
piccolo 618
tri@@ 618
etta 618
dare 617
natur@@ 615
nostre 615
ori@@ 615
foto 614
grado 612
ere@@ 611
semplice 611
adesso 611
control@@ 609
pa@@ 608
anz@@ 608
fl@@ 607
giu@@ 606
acci@@ 606
cost@@ 605
dir@@ 604
cin@@ 604
sotto 604
disc@@ 603
19@@ 602
asp@@ 601
uomo 600
Av@@ 600
ri 599
interessante 599
m 599
menti 598
legg@@ 596
otten@@ 595
arono 595
ie 594
immagin@@ 592
oro 591
lav@@ 591
facciamo 591
pos@@ 590
ecc@@ 590
fis@@ 590
niente 590
prossi@@ 590
Voglio 588
usare 588
amenti 588
arci 588
cresc@@ 588
quelli 587
cos@@ 587
sch@@ 586
ben@@ 585
aiut@@ 583
vedete 583
vis@@ 582
sto 582
perchè 581
pianeta 579
vo@@ 578
las@@ 578
lungo 577
ea 577
ass@@ 577
gruppo 577
Poi 577
tiamo 576
numero 574
ute 574
sper@@ 574
età 574
avevo 573
6 573
far 572
ismo 572
cc@@ 571
iti@@ 570
ecco 570
5@@ 570
prendere 569
fat@@ 569
fatti 568
torn@@ 567
chied@@ 566
terra 566
quasi 566
ena 565
gni 565
invece 565
ella 565
proc@@ 565
vista 565
program@@ 564
speci@@ 564
mezzo 563
atura 563
maggior 563
ede 563
amp@@ 562
7 561
pun@@ 561
Co@@ 560
anti@@ 560
zio 560
posso 560
messo 559
stu@@ 559
abbia 558
pl@@ 558
difficile 557
um@@ 556
sero 555
piac@@ 554
oria 553
trovare 553
esto 553
dalle 553
vic@@ 552
essa 552
zzi 552
lar@@ 551
viamo 551
arvi 550
osserv@@ 550
amb@@ 550
cel@@ 549
abile 547
Nel 546
gia 545
alità 544
mettere 544
osa 543
colo@@ 542
0@@ 542
aro 542
dist@@ 542
oper@@ 541
ogg@@ 541
9@@ 539
app@@ 539
ambi@@ 538
compr@@ 537
rà 537
be@@ 536
contro 536
troppo 535
enti@@ 535
eri@@ 533
riguar@@ 533
Cosa 532
Gi@@ 531
tta 530
aggi 529
state 528
costruire 528
vostro 527
sull' 526
dev@@ 526
semplicemente 526
8@@ 525
pir@@ 525
risult@@ 523
luce 523
abor@@ 521
ang@@ 521
dimen@@ 521
oni@@ 520
n 519
realizz@@ 519
cas@@ 518
corso 517
perim@@ 517
lan@@ 517
fond@@ 517
gioc@@ 517
popol@@ 515
libro 514
rec@@ 513
spieg@@ 512
deve 512
mb@@ 512
import@@ 511
settiman@@ 511
mett@@ 510
piuttosto 510
Gu@@ 509
dia 509
macchina 509
gno 507
svilupp@@ 507
den@@ 507
suoi 507
itt@@ 506
cambiare 505
strum@@ 504
assi@@ 504
diversi 504
scal@@ 503
metri 503
cir@@ 502
vengono 502
immagine 502
Bene 501
prend@@ 501
tratta 501
migliore 500
ciamo 499
stru@@ 498
organizz@@ 498
Gli 498
giorni 497
polit@@ 497
vità 497
present@@ 495
eria 494
gere 494
Mar@@ 493
Dio 493
arri@@ 492
cul@@ 492
mil@@ 491
zia 491
scel@@ 491
sulle 491
tratt@@ 491
scuola 491
piace 490
parti@@ 490
etro 490
strada 490
itori 489
giro 489
ell@@ 489
Era 488
emo 488
b 488
scor@@ 487
fre@@ 487
significa 487
interess@@ 487
cli@@ 486
ace 486
sui 486
consider@@ 486
zi 486
dav@@ 485
sembr@@ 485
pure 485
natura 485
giusto 484
fos@@ 484
diverse 484
umani 484
ricerca 483
design 483
nas@@ 483
nello 482
miliardi 482
rel@@ 482
corpo 482
ché 481
risp@@ 481
sembra 481
egn@@ 480
oli 480
spi@@ 479
temp@@ 479
cr@@ 479
vediamo 479
remo 478
cinque 477
cibo 477
completamente 477
risol@@ 476
ort@@ 476
dentro 476
società 475
Allora 475
probabilmente 474
fondo 474
piccola 473
raggiun@@ 473
Pro@@ 473
appena 472
nessuno 472
compl@@ 472
ativo 471
occup@@ 471
inform@@ 470
rov@@ 469
vostra 469
simi@@ 468
pon@@ 468
livello 468
avevano 467
rebbero 466
Ri@@ 466
comun@@ 466
indi@@ 466
lingu@@ 464
regi@@ 464
succede 463
spesso 463
necess@@ 462
ta@@ 461
mercato 461
vivere 461
nuova 461
durante 461
6@@ 461
mare 461
Pen@@ 460
uti@@ 460
India 460
ì 460
possa 460
fotogra@@ 460
8 459
base 459
san@@ 459
defin@@ 459
son 458
metter@@ 458
coli 458
utt@@ 458
differ@@ 458
mal@@ 458
bre@@ 457
zo 457
conos@@ 457
Vi 456
sappiamo 456
donne 455
parole 455
siete 454
comunità 454
30 454
pensato 453
grazie 453
Quello 453
9 453
is 453
film 452
animali 452
inizio 452
aver 451
quei 450
iche 450
anto 449
ragazzi 449
dello 448
guerra 448
materi@@ 447
elettr@@ 447
abilità 447
ar 446
el 446
armi 446
00 445
dar@@ 445
ini@@ 445
ba 445
gono 445
alto 445
durre 444
esperienza 444
gioco 444
onale 444
succ@@ 443
conto 443
pia 441
eno 441
mie 441
elo 441
des@@ 441
Uniti 440
tec@@ 440
Cre@@ 440
riusci@@ 440
rend@@ 440
conc@@ 440
osc@@ 440
tto 440
uso 439
Questi 439
ona 439
contr@@ 439
inf@@ 439
Su@@ 439
Stati 438
americ@@ 437
fron@@ 437
Terra 437
icità 436
giov@@ 436
stessi 436
hai 436
0 435
Di@@ 435
risposta 435
plic@@ 434
tu 434
perc@@ 434
porta 433
Tut@@ 433
pubblico 433
ran@@ 433
storie 433
sapere 432
tor@@ 432
No 431
aspett@@ 431
chiamo 431
Qui 431
rappresent@@ 431
scienza 431
ultimi 430
este 429
poco 428
be 428
mis@@ 427
ade 427
ista 427
mostra 427
signific@@ 426
positi@@ 426
gover@@ 426
hi 426
pu@@ 425
genere 425
ness@@ 425
fanta@@ 425
puoi 425
chiamato 424
sì 424
veloc@@ 424
lavorare 424
ativa 424
ban@@ 423
avanti 423
S 423
1 422
umano 422
oce@@ 421
pers@@ 420
pover@@ 420
200@@ 420
mmo 419
lun@@ 419
nome 419
tra@@ 419
interno 419
qualsiasi 419
devo 418
vogli@@ 418
indietro 417
Ha 417
raccont@@ 416
scrit@@ 416
100 415
posti 414
paesi 414
là 414
vec@@ 414
comport@@ 414
gie 413
Penso 412
modello 412
cri@@ 411
ond@@ 411
posizione 411
malatti@@ 411
testa 411
gre@@ 410
tura 410
studi@@ 410
bambino 410
iniziato 409
vere 409
otti@@ 409
paese 409
maggi@@ 409
succed@@ 408
sola 408
rius@@ 407
or 407
vamente 407
portare 406
cercando 406
ee 406
possibilità 405
funziona 405
pio 405
elli 405
evi 404
Par@@ 404
ucci@@ 404
minuti 404
sur@@ 404
af@@ 404
mette 404
cellu@@ 404
incontr@@ 404
processo 403
Siamo 402
media 402
paio 402
pubblic@@ 402
industri@@ 402
diff@@ 402
archit@@ 401
struttura 401
abb@@ 401
Con@@ 400
ammo 399
asse 399
col 399
occhi 399
accio 399
poter 398
servi@@ 398
dur@@ 397
mani@@ 397
ragione 396
centro 396
quest' 396
mesi 396
sost@@ 396
ogli@@ 395
mili@@ 395
New 395
fil@@ 395
capacità 394
post@@ 394
p 394
O 392
potere 391
Mol@@ 390
situ@@ 390
meravigli@@ 389
trasform@@ 389
imento 388
hi@@ 388
person@@ 388
scoperto 388
forza 388
soldi 388
nuove 387
prof@@ 387
incredibile 387
musica 387
tti 386
fica 386
ard 385
giorn@@ 385
ef@@ 384
vorrei 384
x@@ 383
lim@@ 383
Ar@@ 383
cambiamento 382
differenza 382
condivi@@ 382
sta@@ 381
innov@@ 381
azz@@ 381
accad@@ 381
schi@@ 381
esa 381
uman@@ 380
accor@@ 380
pan@@ 380
anim@@ 380
eci 379
stava 379
faccio 379
luogo 379
pazi@@ 378
serv@@ 377
intorno 377
sen@@ 377
sviluppo 376
ries@@ 376
passato 376
tur@@ 376
movi@@ 376
universo 376
part@@ 375
cres@@ 375
loc@@ 375
cat@@ 374
ello 374
emat@@ 374
erebbe 374
bri@@ 373
sul@@ 373
ricon@@ 373
astr@@ 373
Pu@@ 373
America 372
itare 372
Sì 371
preso 371
fe@@ 371
ard@@ 371
sentito 371
usa 371
immagini 370
bil@@ 370
mangi@@ 370
Uni@@ 370
” 369
madre 369
sosten@@ 369
video 369
visi@@ 369
econom@@ 368
glio 368
am 368
ogia 368
creato 368
periodo 367
arla 367
causa 367
off@@ 367
consu@@ 366
conn@@ 366
Pot@@ 366
dol@@ 365
tuto 365
donna 365
progett@@ 364
conv@@ 364
Queste 364
tut@@ 364
strut@@ 364
super@@ 364
tuo 364
ricor@@ 364
let@@ 363
som@@ 363
sfi@@ 363
azionale 363
iscono 363
comb@@ 362
cerc@@ 362
sf@@ 362
seconda 362
piccoli 362
letter@@ 361
scopri@@ 361
campo 361
famiglia 361
arte 361
modi 360
atter@@ 360
particolare 360
arli 360
nu@@ 359
azien@@ 359
produ@@ 358
Potete 358
non@@ 358
parti 358
quell' 358
For@@ 357
fondament@@ 357
ghi@@ 356
carb@@ 356
avrebbe 356
essero 356
nor@@ 355
esta 355
sopra 355
Di 354
Ad@@ 354
ile 354
diverso 354
compag@@ 354
vuole 354
Ne@@ 354
ge@@ 354
vogliamo 353
gio@@ 353
Ok 353
c 352
scriv@@ 352
za 352
all 351
nulla 351
chiesto 351
fun@@ 351
vari@@ 351
chiama 351
blo@@ 351
globale 350
aggiun@@ 350
diventare 350
trovato 350
ate@@ 350
male 350
individu@@ 349
dico 349
nem@@ 349
tipi 349
ricord@@ 348
pp@@ 348
organ@@ 348
medi@@ 347
atamente 347
rin@@ 347
x 347
colleg@@ 347
prog@@ 347
pic@@ 347
[ 347
] 347
ambiente 346
r 346
sa@@ 346
vers@@ 346
condi@@ 346
batter@@ 346
vicino 346
guardare 345
gro@@ 345
sacco 344
buona 344
cur@@ 344
enorme 344
000 344
invent@@ 344
adre 344
informazioni 344
serie 343
stico 343
sent@@ 343
alb@@ 342
mapp@@ 342
invest@@ 341
disp@@ 341
dovuto 341
test@@ 340
evole 340
ghi 340
deva 340
sopr@@ 340
veni@@ 340
15 339
sano 339
domande 339
sbagli@@ 338
ovviamente 338
princip@@ 338
cell@@ 338
vu@@ 338
reale 338
uni@@ 337
appar@@ 337
comunic@@ 337
pian@@ 337
rispon@@ 337
petrolio 337
Possiamo 337
mus@@ 337
ece 336
ord@@ 336
mini@@ 336
questione 336
Ciò 336
utilizz@@ 336
stare 335
esattamente 335
inci@@ 335
cos' 334
arrivare 334
fia 334
coll@@ 334
rad@@ 333
sini@@ 333
ose 332
inten@@ 332
sole 332
vano 332
dono 331
liber@@ 331
cammin@@ 331
lato 330
ann@@ 330
aia 330
into 330
dito 329
rebbe 329
as 329
cominciato 329
biamo 328
Tutti 328
net@@ 327
migliaia 327
isti 327
umana 327
tua 327
osi 327
inv@@ 327
sue 327
nuovi 326
lic@@ 326
mani 326
faccia 324
lev@@ 324
illu@@ 323
Sapete 323
auto 323
opportun@@ 323
serve 323
oè 323
atten@@ 323
ascolt@@ 323
ricev@@ 322
edi@@ 322
influ@@ 322
sh@@ 322
portato 321
studenti 321
quant@@ 321
uomini 321
rap@@ 321
saranno 321
ebbe 321
corr@@ 320
economia 320
secolo 320
anze 320
pa 320
“ 319
atti 319
sicur@@ 319
parla 319
Pri@@ 318
superficie 318
sing@@ 318
piu 317
Bi@@ 317
macch@@ 317
cercare 317
amore 317
fico 317
soff@@ 317
norm@@ 316
amma 316
scienzi@@ 315
muov@@ 315
mini 315
abbi@@ 315
ber@@ 315
piedi 315
D 315
epi@@ 314
desider@@ 314
B 314
dovrebbe 313
siste@@ 313
resto 313
York 313
j@@ 312
straordin@@ 312
ner 311
rivol@@ 311
forme 311
dicono 311
capit@@ 310
avi 310
biso@@ 310
motivo 309
lont@@ 309
fav@@ 309
prodotto 309
mine 309
parola 309
Cer@@ 309
emp@@ 309
edificio 309
Da 308
ture 308
es 308
gal@@ 308
glia 307
vent@@ 307
tto@@ 307
perf@@ 307
tecnolo@@ 307
dec@@ 307
40 306
scar@@ 305
pensi@@ 305
prote@@ 305
ave 303
Mi@@ 303
religi@@ 303
picco@@ 302
60 302
Vi@@ 302
ove 302
rapi@@ 300
ing 300
robot 300
posi@@ 300
quad@@ 300
gran@@ 300
dig@@ 299
pend@@ 299
libr@@ 299
salv@@ 298
zone 298
clas@@ 297
est 296
SA 296
ame 296
prefer@@ 296
rem@@ 294
,@@ 294
sco 294
emo@@ 294
mul@@ 293
err@@ 292
acqu@@ 291
confer@@ 291
prodo@@ 291
gan@@ 291
Lu@@ 291
incredi@@ 290
plor@@ 290
ami 290
stor@@ 289
V 289
Z@@ 289
arr@@ 288
ay 287
aver@@ 287
pal@@ 287
afr@@ 287
o-@@ 286
osp@@ 286
C 285
ragi@@ 285
vor@@ 285
respon@@ 284
possi@@ 283
Oh 282
ero@@ 281
din@@ 280
ze 280
moti@@ 280
chè 279
Pi@@ 278
impres@@ 277
tas@@ 277
sel@@ 277
concentr@@ 277
perto 276
tot@@ 275
ature 275
Al 274
univers@@ 274
ative 274
Un@@ 274
vostr@@ 273
piano 273
intellig@@ 273
tag@@ 272
spe@@ 272
asi 272
nia 271
tiv@@ 271
ron@@ 271
viol@@ 269
sin@@ 269
man 268
model@@ 268
stes@@ 268
riv@@ 267
educ@@ 267
Li@@ 267
auto@@ 266
vir@@ 266
ger@@ 264
gest@@ 263
agi@@ 263
men@@ 263
elem@@ 263
OK 262
gar@@ 262
orno 261
studio 261
fal@@ 261
fam@@ 261
nucle@@ 261
ogi@@ 260
ama 259
ricer@@ 259
consi@@ 258
divi@@ 258
th@@ 258
num@@ 258
oll@@ 258
Fran@@ 258
grup@@ 257
bo 257
nel@@ 255
invol@@ 255
gra@@ 255
dent@@ 255
scienti@@ 255
mess@@ 254
mac@@ 253
esemp@@ 253
20@@ 253
ide@@ 253
emer@@ 252
bal@@ 251
solut@@ 250
fur@@ 250
sens@@ 250
virus 249
area 249
matt@@ 249
we@@ 249
evi@@ 249
L 247
ros@@ 247
conclu@@ 247
sion@@ 245
ton 245
CA 245
Ro@@ 245
ba@@ 244
80 244
DNA 243
– 243
scu@@ 243
eta 242
centr@@ 242
canc@@ 242
Y@@ 242
Si@@ 241
crit@@ 241
Com@@ 240
Internet 239
bl@@ 239
preci@@ 238
equi@@ 238
princi@@ 238
gl@@ 238
az@@ 237
ll@@ 237
fortun@@ 236
gir@@ 236
civi@@ 236
biolog@@ 236
Euro@@ 235
moder@@ 234
micro@@ 234
compas@@ 233
Mon@@ 232
prepar@@ 232
z 232
Ma@@ 231
line 230
Mo@@ 230
ou@@ 230
colare 229
bor@@ 229
bilità 229
Chris 228
demo@@ 228
stre 228
orig@@ 228
et 227
Car@@ 226
fo@@ 226
ey 225
25 225
colle@@ 224
posta 224
usto 223
ebr@@ 222
lead@@ 221
olog@@ 221
tran@@ 220
colt@@ 220
ada 219
os 217
distri@@ 217
medic@@ 216
pat@@ 215
ol 215
sign@@ 214
10@@ 214
aci@@ 214
us 211
tempor@@ 211
12 210
det@@ 210
roc@@ 210
En@@ 209
occu@@ 208
progres@@ 208
ester@@ 208
Le@@ 207
Sh@@ 207
Joh@@ 207
zero 207
vill@@ 207
terri@@ 206
Nor@@ 205
contri@@ 202
ani@@ 202
ner@@ 201
effici@@ 201
pubbl@@ 200
nut@@ 200
attraver@@ 200
sequ@@ 200
compet@@ 199
Ci@@ 199
pe 198
Bu@@ 198
nol@@ 197
separ@@ 196
don@@ 196
commerci@@ 195
abil@@ 195
genet@@ 195
biol@@ 195
ry 194
200 194
son@@ 194
luog@@ 193
partic@@ 193
500 192
enom@@ 191
divers@@ 191
atur@@ 191
ak@@ 191
pet@@ 190
T 190
11 190
mbr@@ 190
ide 190
Bo@@ 189
cop@@ 188
sugg@@ 188
test 188
integr@@ 188
missi@@ 187
deter@@ 187
ok 186
che@@ 185
pul@@ 185
Secon@@ 184
G 184
199@@ 184
vive 184
la@@ 184
ill 183
urb@@ 183
atmo@@ 183
Google 183
desig@@ 183
ue 183
secon@@ 182
tal@@ 182
ase 182
De@@ 181
ley 181
stat@@ 180
So@@ 179
Pos@@ 179
spo@@ 179
intro@@ 178
sempl@@ 177
AI@@ 177
squ@@ 177
ardi 177
Is@@ 177
software 176
Th@@ 176
Sap@@ 176
18 176
it 176
econo@@ 175
famigli@@ 174
ordin@@ 174
creati@@ 174
ho@@ 174
Ge@@ 173
sup@@ 172
fol@@ 172
star@@ 172
Ti@@ 171
piamo 171
ler 171
our 171
ament@@ 170
Re@@ 170
entu@@ 170
priv@@ 168
tit@@ 168
enor@@ 168
aw@@ 168
f 167
Gr@@ 167
ki@@ 167
quar@@ 167
Po@@ 166
tre@@ 165
discus@@ 165
ago 165
net 164
X@@ 164
citt@@ 164
anc@@ 164
vide@@ 164
ado@@ 163
origin@@ 163
qui@@ 163
mmet@@ 163
H 163
memor@@ 162
e-@@ 161
uo@@ 161
complic@@ 161
indo@@ 160
Ste@@ 160
he@@ 159
Wi@@ 159
ay@@ 158
gas 158
lit@@ 157
que 157
atta 157
at 157
stre@@ 157
neur@@ 156
David 155
dise@@ 155
atu@@ 155
scri@@ 155
intelli@@ 154
stud@@ 154
business 153
up@@ 153
time 153
over@@ 153
dr@@ 153
stati@@ 152
spazi@@ 152
contin@@ 151
complet@@ 151
eng@@ 150
compar@@ 149
HI@@ 149
um 149
ity 149
ash@@ 148
lizz@@ 148
fort@@ 147
suff@@ 146
od@@ 144
stri@@ 144
ke 142
ener@@ 142
bamb@@ 142
inclu@@ 141
ep@@ 141
bac@@ 141
evid@@ 140
nam@@ 140
capac@@ 139
attr@@ 139
odo 139
uro@@ 139
ong 139
data 138
M 137
TE@@ 137
inst@@ 136
probabil@@ 134
cro@@ 134
equ@@ 134
comm@@ 132
glob@@ 131
age 131
sub@@ 131
bli@@ 131
Ho@@ 131
immag@@ 130
X 130
muc@@ 129
ine@@ 129
ers 129
case 129
famili@@ 128
energ@@ 127
relati@@ 126
/ 126
oh 126
comple@@ 125
ex@@ 125
dro@@ 124
anal@@ 124
les 123
P 122
ly 122
.. 122
Americ@@ 121
merc@@ 121
govern@@ 121
descri@@ 120
Au@@ 120
cuno 120
Jo@@ 119
acco 118
om 118
Inter@@ 118
visu@@ 118
produce 117
ford 117
doman@@ 117
Wor@@ 117
spec@@ 115
sm@@ 115
care 115
grad@@ 115
pena 114
v 114
of 114
trad@@ 113
W 112
dd@@ 110
R 110
gi 109
viamente 109
ah 109
ames 109
cco 109
fe 109
ation 108
ack 108
Be@@ 107
semplic@@ 107
seri@@ 107
ood 107
tic@@ 105
Dav@@ 104
cl@@ 104
get 104
ver 104
contro@@ 103
ure 103
team 103
cond@@ 103
Gre@@ 103
ste@@ 103
ker 103
q 103
sum@@ 102
bir@@ 102
more 101
esperi@@ 100
ow 99
ft 99
bro@@ 99
work 99
oglio 98
cora 98
diffici@@ 97
K 97
sb@@ 96
ational 96
inste@@ 96
ir 95
ch 95
eting 95
cogn@@ 95
die 95
Cos@@ 95
ear@@ 95
duc@@ 94
late 94
questi@@ 93
pose 93
F 93
ick 92
har@@ 92
fa@@ 92
real@@ 92
sop@@ 92
prob@@ 92
mark@@ 91
eme 91
semb@@ 91
eve 91
comput@@ 91
dy 90
So 89
fan@@ 89
Tw@@ 88
kin@@ 88
st 87
oun@@ 87
ff 86
dollar@@ 86
land 86
auti@@ 86
lob@@ 85
The 85
Okay 84
ong@@ 84
erra 83
imes 82
ward 82
ance 81
plan@@ 81
ph@@ 80
our@@ 80
tive 79
Af@@ 79
by 79
top 78
ith 77
ess 77
der 77
anci@@ 77
low 76
produc@@ 76
ster 76
Wh@@ 75
ter 74
commer@@ 74
aga@@ 74
igli@@ 73
ach@@ 73
ush 72
incre@@ 72
culture 72
N 72
° 71
right 71
nov@@ 71
fas@@ 71
trav@@ 70
icro@@ 70
pie@@ 70
fir@@ 70
the 70
pur@@ 69
$ 69
Go@@ 68
altr@@ 68
fri@@ 68
superf@@ 68
ause 68
bra@@ 67
ei@@ 67
od 66
nat@@ 66
appro@@ 66
ney 66
ficio 66
bur@@ 65
use 65
ans 65
fut@@ 65
add@@ 64
ape 64
ld 63
insi@@ 63
Q@@ 63
sk@@ 62
sli@@ 62
ks 62
put@@ 61
w 61
robo@@ 61
put 61
dge 59
ling 59
ence 59
sof@@ 59
nolo@@ 58
dri@@ 58
mer 58
ship 58
enc@@ 58
ú 58
Afric@@ 58
Quest@@ 57
ouse 57
the@@ 57
den 57
bus@@ 56
end 56
Earth 56
scale 56
than 56
recor@@ 55
pubb@@ 55
ick@@ 55
ent 55
wn 55
ant 54
ulla 54
U 54
ell 53
set 53
rol@@ 53
svilu@@ 53
arch@@ 53
up 52
war@@ 52
king 52
ea@@ 50
gh 50
tell@@ 50
ur 50
cho@@ 50
ky 50
& 49
don 49
gior@@ 49
ast 49
talk 49
ey@@ 48
itive 48
mate 48
und 48
ort 48
car 48
semp@@ 47
ws 47
ot 47
,000 47
even 47
é@@ 47
á 46
rai@@ 45
ther 45
ds 45
elli@@ 45
petrol@@ 44
art 44
… 44
open@@ 44
ger 43
my 43
ts 43
S. 43
indu@@ 43
Tran@@ 42
@ 42
elet@@ 42
ke@@ 42
ary 42
ms 42
« 42
» 42
show 42
vello 42
sult@@ 41
well 41
sec@@ 41
sive 41
bit 41
amer@@ 41
ates 40
nuov@@ 40
signi@@ 40
ich 40
plac@@ 40
— 40
sure 39
trans@@ 39
ans@@ 39
J 39
fro@@ 39
also 39
create 39
patter@@ 39
proble@@ 38
dre@@ 38
ak 38
cus 37
id 37
air 37
ach 36
ish 36
sy@@ 36
ens 36
gs 36
All@@ 35
wi@@ 35
É 35
outh 35
ics 35
appe@@ 34
quel@@ 34
wat@@ 33
int 33
ut 33
Y 32
simp@@ 32
organi@@ 32
reali@@ 32
ic 32
attro 32
sion 32
long@@ 32
wer 31
ness 31
men 31
hu@@ 31
ther@@ 30
th 30
ga@@ 30
ater 30
dra@@ 30
wa@@ 30
svi@@ 30
social 30
One 29
ind 29
of@@ 29
over 29
tor 28
bec@@ 28
Pe@@ 28
ones 28
nuc@@ 28
ital 28
book 28
figure 27
ty 27
´ 27
ves 27
ain 27
any 27
tion 27
bbe 27
ory 27
í 27
for 27
ber 27
sho@@ 26
port 26
list@@ 26
wee@@ 26
out@@ 26
any@@ 25
red 25
NA 25
stra@@ 25
ó 25
ful@@ 25
stop 25
rou@@ 25
way 24
strutt@@ 24
quest@@ 24
ank 24
sw@@ 24
gone 24
ll 24
back 23
Yor@@ 23
tou@@ 23
nec@@ 23
open 23
ep 23
kil@@ 23
ment 23
siasi 22
ppo 22
ps 22
q@@ 22
future 22
uttosto 22
key 21
Z 21
chang@@ 21
è@@ 21
ator 21
we 21
) 20
disco@@ 20
ury 20
univer@@ 20
fotog@@ 20
wan@@ 20
+ 20
ners 19
low@@ 19
ins 19
bet@@ 19
op 19
à@@ 19
superfici@@ 19
day 19
let 19
ement 19
ght 19
ns 18
'@@ 18
ju@@ 18
ons 18
jo@@ 18
ors 18
wor@@ 18
ground 18
American 18
entire 18
her 18
food 18
lue 17
setti@@ 17
ety 17
d-@@ 17
attamente 17
ust 17
side 17
ical 17
* 17
he 17
indi 17
Q 17
igh 17
igh@@ 16
air@@ 16
ou 16
chil@@ 16
ets 16
tain@@ 16
ken 16
ding 15
sic 15
des 15
tic 15
ogy 15
fore 15
ail@@ 15
wer@@ 15
thers 15
shi@@ 15
oul@@ 15
iness 15
own 15
ect 15
ax@@ 15
Yeah 15
U.@@ 14
ys 14
ject 14
ould 14
face 14
see 14
wh@@ 14
old 14
ì@@ 14
ree 14
how 14
res 14
sing 14
Now 13
ple@@ 13
out 13
mach@@ 13
hy@@ 13
dom 13
pati@@ 13
ever 13
astanza 12
high@@ 12
etter 12
0,000 12
ines 12
wr@@ 12
game 12
ming 12
My 12
dience 12
avigli@@ 12
ings 12
Amer@@ 12
hal@@ 12
els 12
kay 12
char@@ 12
ound 11
ls 11
able 11
look 11
cra@@ 11
head 11
single 11
flo@@ 11
chan@@ 11
hum@@ 11
wal@@ 11
ye@@ 11
ning 11
coun@@ 11
ö@@ 11
off 10
lot 10
ery 10
ble 10
= 10
clo@@ 10
stem 10
under@@ 10
done 10
ough 10
now 10
ally 10
ention 10
grap@@ 10
fiel@@ 10
tw@@ 10
onal 10
ering 10
j 10
All 10
als 10
ris 9
ò@@ 9
( 9
may@@ 9
row 9
tain 9
fic 9
my@@ 9
life 9
ross 9
ving 9
run@@ 9
phone 9
ely 9
water 8
ous@@ 8
hap@@ 8
very 8
otog@@ 8
sh 8
alk 8
shar@@ 8
ready 8
act 8
stry 8
tog@@ 8
loo@@ 8
zation 8
# 8
here 8
ents 7
ful 7
hard 7
hel@@ 7
night 7
ty@@ 7
azie 7
tegr@@ 7
its 7
space 7
fish 7
she 7
ols 7
made 7
down 7
ous 7
ular 7
ations 6
hun@@ 6
Ear@@ 6
ities 6
ies 6
Goog@@ 6
portun@@ 6
Sub@@ 6
try 6
war 6
ult 6
ition 6
aid 6
ters 6
led 6
desi@@ 6
econ@@ 6
problem 6
ittle 6
live 6
kes 6
cle@@ 6
anding 5
high 5
lion 5
‘ 5
tors 5
ching 5
less 5
beg@@ 5
iting 5
ird 5
They 5
What 5
alcun@@ 5
script 5
² 5
ands 5
ath 5
give 5
city 5
tech@@ 5
cle 5
can 5
kind 5
imag@@ 5
ked 5
tions 4
reas@@ 4
lear@@ 4
ghts 4
ting 4
commun@@ 4
ó@@ 4
We 4
ces 4
nature 4
States 4
ven 4
ways 4
some 4
mes 4
community 4
ices 4
ated 4
them@@ 4
site 4
if 4
love 4
ences 4
United 4
read@@ 4
utto@@ 4
viron@@ 4
eas@@ 4
home 4
gets 4
ü@@ 4
global 4
ñ@@ 4
eah 4
¼ 3
coup@@ 3
call 3
group 3
house 3
was@@ 3
point 3
memb@@ 3
away 3
news 3
room 3
self 3
ç@@ 3
cour@@ 3
story 3
project 3
` 3
ople 3
big 3
child 3
had 3
You 3
wing 3
view 3
ution 3
else 3
won 3
ying 3
ä@@ 3
This 3
possible 3
power@@ 3
á@@ 3
direc@@ 3
amoun@@ 3
ths 3
working 3
want 3
driv@@ 3
piece 3
your 3
hand 3
dren 3
It 3
♪ 3
½ 2
oil 2
next 2
once 2
not 2
got 2
making 2
reli@@ 2
€ 2
part 2
ask 2
hop@@ 2
company 2
God 2
world 2
kno@@ 2
will 2
model 2
country 2
good 2
lots 2
ically 2
ered 2
science 2
ays 2
ules 2
tty 2
person 2
sions 2
four 2
him 2
ating 2
anything 2
head@@ 2
told 2
û 2
wards 2
ments 2
ú@@ 2
vie@@ 2
And 2
mic 2
that 2
you 2
indivi@@ 2
from 2
body 2
why 2
cost 2
thou@@ 2
other 2
If 2
í@@ 2
change 2
feel 2
public 2
works 2
actu@@ 2
order 2
school 2
each 2
real 2
ween 2
market 2
action 2
langu@@ 2
ends 2
figu@@ 2
new 2
bbiamo 2
building 2
ā@@ 2
play 2
light 2
utes 2
hope 2
etting 2
tware 1
zing 1
did 1
natural 1
better 1
best 1
electr@@ 1
inning 1
syst@@ 1
ems 1
left 1
elec@@ 1
about 1
f-@@ 1
word 1
How 1
`@@ 1
ined 1
amaz@@ 1
coming 1
human@@ 1
human 1
language 1
™ 1
metimes 1
hav@@ 1
ù@@ 1
İ@@ 1
ses 1
his 1
nostr@@ 1
® 1
have 1
ched 1
times 1
ž@@ 1
beli@@ 1
very@@ 1
ѐ 1
large 1
hol@@ 1
imagine 1
liter@@ 1
boo@@ 1
publi@@ 1
¥ 1
stic 1
struc@@ 1
ages 1
which 1
â@@ 1
bad 1
ê@@ 1
ects 1
found 1
place 1
this 1
was 1
© 1
wed 1
name 1
sense 1
engine@@ 1
ned 1
just 1
through 1
woman 1
when 1
happy 1
inside 1
such 1
These 1
aying 1
with 1
billion 1
century 1
information 1
xt 1
otograp@@ 1
most 1
yet 1
ś@@ 1
ć 1
buil@@ 1
ã@@ 1
front 1
read 1
˚ 1
ext@@ 1
£ 1
^ 1
surface 1
É@@ 1
Ç@@ 1
went 1
ï@@ 1
call@@ 1
know 1
ample 1
power 1
bility 1
brain 1
but 1
free 1
cells 1
long 1
Here 1
experience 1
tures 1
ability 1
kids 1
